73
1A
6C
77
73
2E
7A
72
6B
6F
64
6C
63
09
14
1A
73
12
7D
70
06
23
65
1D
6F
7F
6F
05
19
6E
1E
70
0F
1B
1B
14
7C
0F
7A
0B
72
17
0B
0D
7B
78
17
19
7A
17
70
6D
0D
14
7C
63
1B
04
14
0B
62
6F
00
00
7A
1C
71
63
6C
1E
06
03
12
73
1A
09
66
75
72
78
0B
14
17
75
18
22
1D
7A
67
05
11
09
06
74
68
19
1F
77
7B
73
7A
25
6D
62
76
05
0B
71
1F
7A
04
12
7B
01
79
0D
01
6B
7B
76
69
06
64
22
71
79
21
04
09
7E
16
0E
7E
52
04
06
1A
6B
1E
05
6B
71
15
03
0F
0F
6B
04
69
0A
77
79
67
6C
65
76
1C
1A
04
79
0C
01
08
67
11
1C
65
73
03
6D
11
17
62
64
09
18
0E
08
12
0B
2C
64
0A
14
12
73
0F
05
03
28
1B
14
07
74
7A
13
18
78
06
79
6E
68
0A
6B
5F
04
18
65
2E
6F
06
71
29
4F
67
08
67
17
00
64
76
1A
65
20
19
19
13
78
20
75
00
69
18
16
1E
04
68
75
75
6A
1C
04
6E
0E
76
68
19
6E
75
09
78
74
79
7D
68
08
6C
7A
74
6D
17
4C
0A
12
01
1F
10
16
21
7A
08
6F
13
79
71
6B
02
6D
04
77
19
1D
16
14
66
6E
6A
06
28
1F
06
02
0D
04
64
63
71
16
7D
72
7C
05
21
6F
23
1C
75
15
22
78
15
6D
6F
11
18
10
72
0C
0B
13
17
06
67
6B
14
25
13
22
65
19
16
0E
63
7E
75
1D
11
01
73
67
05
0C
7A
03
1D
1A
0C
0A
7D
0C
66
63
22
1A
73
7D
7B
1D
73
7F
6E
77
1C
62
5F
09
0A
7E
75
65
1F
15
10
58
79
7A
22
79
7E
6C
13
6E
75
7A
03
66
12
00
1D
7D
7E
6B
71
18
1D
71
0F
09
00
6E
7C
06
1F
1E
74
01
18
1D
6F
67
09
0F
11
1C
7D
1B
17
14
6F
17
15
10
07
7F
1C
72
7B
69
10
09
00
69
1A
68
17
78
16
0B
00
09
6A
78
7E
79
05
77
04
00
07
62
7A
77
02
72
0E
03
7B
77
0C
0E
77
7F
12
0D
69
12
07
63
11
63
13
66
71
67
1C
14
6B
0E
78
6B
11
7D
6D
71
6C
15
76
1B
74
1C
0C
74
70
65
6B
1B
1E
0A
74
7B
70
72
6A
0F
0D
6E
7F
7F
00
00
11
0B

