65
0C
6B
18
0D
10
68
7F
04
7F
0E
70
79
17
6F
0F
7B
6D
02
69
14
76
0B
11
69
7C
7D
1B
16
7A
14
01
05
04
0B
04
11
64
04
61
73
71
7E
09
0D
04
0F
1F
73
17
1B
7B
70
0B
13
63
01
13
0A
0A
7D
08
64
67
7F
67
7A
74
77
1C
0B
1C
76
14
09
6A
7E
70
06
63
6B
6C
0F
6C
1A
08
6B
75
02
7B
08
1C
0F
18
15
65
1F
18
06
72
79
54
71
68
0B
6B
70
18
7A
6C
1E
00
6D
1B
7D
1F
79
16
16
19
0B
72
02
25
75
75
22
78
0B
13
71
6E
02
1F
73
19
6D
68
79
1B
0D
17
09
19
6B
75
18
0A
1C
03
03
64
72
03
79
14
15
1D
70
07
12
07
71
07
7E
19
05
7A
0A
05
16
7C
00
65
16
07
3F
17
0C
64
32
53
01
7C
20
07
19
79
7B
25
12
2B
5D
69
15
6D
6D
03
0B
0F
66
72
6E
6E
69
71
1C
0C
1A
7A
76
0C
7B
16
13
1A
1F
03
72
77
00
7C
70
02
1C
79
1E
6A
04
76
07
0F
06
71
19
1A
78
16
0D
7F
13
79
15
76
0D
72
05
18
1F
63
11
70
11
05
15
14
25
6D
7B
25
77
58
00
14
72
79
02
05
09
0A
07
07
64
74
08
02
10
65
14
09
68
11
03
70
1C
0E
13
01
7B
66
12
02
04
7F
1A
09
1E
1F
0D
1B
13
14
21
71
22
06
7F
18
2A
67
03
1B
6F
7C
6D
71
6E
00
16
7D
17
1D
01
07
0F
0D
09
73
11
25
1C
6F
7C
09
7E
1B
6A
65
1C
71
17
6E
6A
6B
7D
00
02
1C
19
6A
75
7C
16
71
0F
0C
68
08
0B
6F
7F
7A
0D
73
64
00
73
18
1D
03
13
68
03
1B
70
25
17
7F
7D
06
0C
0E
0D
13
75
6C
7C
64
12
15
02
66
7D
00
09
64
00
67
65
1B
72
63
01
10
19
6C
74
19
68
7D
1D
6B
17
00
0C
79
06
13
67
67
20
07
69
61
1B
63
02
18
03
1E
17
6C
0A
69
20
70
20
01
6B
13
77
76
79
0C
62
73
65
74
69
6C
7E
7E
7A
75
7A
00
71
10
72
13
6D
19
65
11
18
11
00
14
71
6B
66
78
66
6F
0F
03
09
01
7A
07
1D
73
6C
7D
66
73
6F
1B
77
0B
74
6F
13
10
64
68
75
72
6A
75
0E
01
1A
6B
79
6A
1C
0B
12
15
79
75

