5B
03
15
61
09
32
66
6C
7F
05
7F
0E
7D
79
07
7D
0F
00
71
02
14
62
6C
0A
7A
0F
16
6A
10
77
10
66
00
15
7B
6F
67
2D
7A
71
0B
6C
65
0D
00
6A
07
7D
7B
07
7D
16
0C
6A
16
65
0D
67
10
1C
75
1C
7F
0A
75
06
64
18
7F
36
0E
71
06
75
6E
12
7F
7F
68
6D
60
02
67
6A
10
6B
1A
05
09
13
73
7B
17
20
7D
07
7C
7B
76
1B
77
05
13
7B
06
1B
10
7C
12
17
1D
0C
6C
7A
75
7D
03
15
0B
05
73
6B
08
12
6A
12
19
01
19
74
75
1C
73
2F
10
7E
79
09
17
71
09
03
1B
66
7A
03
6C
1C
01
13
07
6C
7A
77
6E
6B
1E
1E
7D
6B
65
6C
0D
6D
06
72
07
16
73
78
6D
22
23
71
1C
00
12
73
00
14
34
44
0A
6D
25
2A
1B
7D
79
03
01
29
0A
7E
0B
67
75
1F
77
1E
13
00
7A
7D
12
15
03
17
26
6F
6D
69
13
2D
1E
1A
03
08
0F
68
1D
16
21
7E
10
03
1B
1E
21
76
0B
6B
1C
0E
1C
0F
76
63
6D
7A
19
18
12
15
11
12
1C
10
09
13
64
15
72
65
66
0B
67
00
14
1E
06
24
18
77
00
65
68
7F
14
7D
26
73
66
6E
78
7B
1C
7F
69
00
66
1E
6B
17
6C
79
18
00
0D
7B
17
6A
76
24
07
18
04
0A
7F
22
07
75
19
02
05
68
71
0C
76
02
15
1C
14
05
04
6D
70
15
78
7C
27
0F
6E
78
14
61
0F
7E
1A
74
11
78
6D
71
7D
7A
04
71
15
08
7F
01
15
0B
1B
6A
63
7D
0D
75
70
6F
13
7C
6A
71
1C
66
07
00
09
19
1E
69
75
7B
70
15
08
64
06
00
08
79
77
18
7B
16
67
04
75
05
7F
00
18
19
6A
72
03
78
02
0A
7B
0F
6E
61
6F
76
67
66
07
07
04
12
1C
07
6A
65
68
6A
71
79
0E
20
7D
1D
07
7C
79
00
04
5E
09
12
00
18
7C
15
23
24
77
08
78
7E
1A
7D
19
67
06
12
05
1E
00
01
6B
0A
09
11
05
70
1C
13
68
63
74
70
0A
0C
6E
07
11
7C
0B
70
11
10
7F
11
01
65
1B
1A
0B
01
13
15
14
72
7A
18
10
17
19
7C
6B
6E
67
08
7B
17
1D
73
69
1C
68
08
1B
01
03
08
1E
76
0A
0B
76
7B
68
1C
27
03
08
68

