09
06
05
75
0C
0C
09
73
0C
79
12
74
7D
0A
78
6F
75
0A
0A
73
04
76
03
6E
71
72
7D
01
00
7D
11
05
12
05
03
7B
75
04
7A
07
07
7F
79
0C
70
01
09
00
04
79
03
0D
04
70
7B
02
70
7B
00
01
0B
02
05
72
75
74
05
01
76
10
7D
09
09
74
0C
7D
7F
79
0E
6E
09
74
0D
05
73
06
06
10
0E
72
72
6F
79
78
78
0F
07
7A
7B
71
79
11
0D
74
08
0F
7C
0D
7D
72
10
7B
77
78
13
07
0A
71
71
76
10
09
09
78
76
7A
09
05
01
75
78
03
04
7D
72
0C
7C
7A
7D
00
70
04
12
73
7E
78
7A
06
01
70
7D
0F
7E
73
7E
6F
78
77
74
7A
0B
02
07
0E
04
7E
11
04
0A
7F
07
02
01
01
03
06
6C
76
06
78
0B
08
7A
10
72
00
72
10
09
05
73
0A
7A
09
0D
0E
72
00
0E
7E
75
05
11
74
0F
07
08
0F
0C
0E
12
0B
7A
08
7B
03
7D
0D
04
7F
74
0E
04
05
03
00
7C
07
04
05
75
78
04
0B
07
79
73
01
72
7A
0F
76
74
7F
79
05
6F
0D
11
77
16
77
72
7C
0B
01
0A
7E
0B
7E
01
09
11
0C
10
02
06
01
76
79
74
0D
77
78
08
76
0D
0A
72
13
05
76
7F
79
71
78
02
0D
6F
0C
7C
75
06
76
71
11
12
08
0B
79
07
01
7A
70
06
79
07
00
0F
0B
76
78
7B
7F
0E
00
6F
0A
01
7E
7F
78
7D
76
0C
07
01
7D
06
7B
75
7A
00
7F
0D
7A
77
74
7C
70
02
03
70
0D
71
05
0C
6D
7D
72
7D
7B
78
7E
7C
02
0A
7B
07
0D
06
75
74
08
79
00
6C
71
00
03
7F
6E
6E
07
6B
0D
7C
07
12
7C
7C
0A
7C
6D
0C
07
79
7E
77
0F
74
0C
00
11
7A
0B
0B
04
7F
08
0D
7A
0D
0F
04
11
13
77
09
10
04
76
76
76
6E
09
0E
72
04
7D
06
6D
14
06
71
72
01
05
09
01
7D
7A
02
08
79
77
09
0D
77
74
73
74
7D
00
07
0D
79
09
07
05
73
08
0C
77
01
0A
03
72
0D
67
7F
00
06
04
7A
0E
0E
10
05
09
0B
0F
0E
7A
03
0E
09
71
0E
7B
0D
02
71
01
05
7C
6E
01
11
78
76
08
76
01
07
01
0A
03
05
74
00
00
0A
7D
6E
00
7C
79
77
0A
04
00
05
7B
7C
05
12
04
76
7D
6F
7A
08
0B
72
07
79
7D
0C
0C
07
0D
71
0B
06
07
73
03
00
72
09
0E
6E
17
04
71
0D
05
6E
07
02
71
0A
07
7B
0F
76
14
15
7F
18
72
09
04
03
04
74
05
00
01
76
7C
72
70
7F
0A
7E
7D
0B
03
7D
72
03
0E
05
06
7A
0E
12
07
7F
6F
10
75
7E
0F
74
02
7C
78
0D
78
7E
7C
79
7E
0C
70
0E
75
0C
0D
02
71
76
7A
7E
02
79
7A
0E
6D
0E
71
07
6F
79
04
7A
00
10
0B
01
72
0A
6F
75
09
6F
00
0B
0E
10
71
00
10
79
03
0B
13
7D
06
7D
6E
02
02
75
01
04
0D
0D
03
7B
7B
7B
0F
09
77
0A
01
6E
75
70
03
02
10
03
07
13
10
04
13
08
12
05
12
04
76
19
0D
7A
05
09
0A
09
6F
11
7E
7C
07
12
00
7F
7B
04
7E
6F
77
73
0C
09
6D
7F
72
75
7D
6F
10
07
76
7F
7E
13
04
77
74
0A
02
04
03
00
79
6E
09
7F
75
7F
76
75
0F
07
09
7D
6F
0D
75
7E
76
6E
00
76
75
7A
10
7C
09
10
02
0F
76
06
05
77
04
7B
70
7A
0D
75
03
76
08
75
73
0B
72
7E
09
08
0C
06
72
7B
7C
77
08
7D
7D
7C
7E
71
06
0F
10
08
75
0C
79
0A
74
7E
0D
0E
72
10
08
0C
7E
79
06
77
05
05
0D
75
03
73
73
04
0D
0B
07
0C
01
05
09
7A
0C
7E
6F
08
07
7B
71
01
7C
05
7A
01
6E
0E
72
11
04
0D
0D
7A
7A
7F
76
11
7A
0D
70
7F
78
0B
11
7E
7C
75
06
72
01
75
79
78
0C
05
70
6F
6D
0A
0A
04
11
03
02
12
09
13
7D
03
0B
11
7D
07
16
00
02
02
15
7D
76
03
0C
7D
73
05
0B
0B
09
72
74
77
7F
08
05
7D
75
7B
77
76
07
0E
78
71
0D
75
0B
09
00
7C
10
7B
75
7E
07
7A
05
0C
0B
7D
06
74
74
75
0F
08
07
79
69
00
0F
6D
6F
70
72
72
06
03
08
7F
7D
7F
7C
02
00
6F
7E
09
7D
71
05
7D
0F
0E
09
12
7F
10
01
0D
09
7C
6F
0C
77
07
70
0B
11
6E
7C
03
73
07
73
09
05
74
7B
74
0F
75
6E
72
09
7D
73
72
01
0C
7C
06
10
0E
70
7B
10
76
12
09
0E
78
0F
09
02
13
0C
7F
0F
0D
13
08
7D
7A
10
7D
0E
0D
77
11
0D
6F
7D
70
04
7F
09
7F
00
7E
0C
06
0F
7A
0E
76
7E
7D
0A
0D
02
0C
7E
74
73
15
02
73
70
0A
75
73
0D
71
71
0B
02
0A
03
7C
01
71
07
6F
0C
6D
09
00
6E
71
76
70
0B
01
0A
10
74
76
04
0C
75
08
16
0F
73
7F
7E
71
75
00
6D
0B
72
0D
02
0B
77
0C
7A
02
7C
7E
08
76
05
11
02
08
76
0E
70
03
74
7B
10
7E
11
04
00
73
0C
7F
07
7F
0E
7F
7E
71
0E
71
01
01
74
7C
02
00
05
7C
02
79
10
0F
03
7B
10
11
77
0D
04
7C
7D
7C
11
01
0B
05
72
78
73
07
6F
05
73
00
70
01
0F
06
0A
72
74
00
7F
6F
01
03
73
06
04
0D
7C
7E
07
0F
79
70
02
73
7A
73
0E
77
0F
76
75
7F
7E
70
7F
0E
74
73
76
0F
7C
70
79
77
03
0F
09
0D
04
70
74
0C
73
71
08
7C
00
78
74
7C
79
75
0E
07
7A
73
06
04
10
7E
08
7C
7D
7F
76
6E
04
0A
78
71
75
0E
04
7F
04
7E
09
05
09
06
7F
05
05
0E
6F
6F
06
7A
00
76
7E
70
0A
70
0D
7B
07
6E
74
00
6F
74
6F
78
79
6F
7C
06
10
77
08
77
0D
75
7D
12
0F
72
77
7E
7F
7C
0B
0D
0E
7C
05
0F
6E
10
07
6E
10
7A
7A
0D
10
0C
11
7D
73
79
05
78
06
7A
0F
70
04
05
7D
0D
12
0E
7C
7C
00
76
09
06
75
02
74
12
0D
72
74
0C
76
7D
7E
6F
02
01
0C
05
12
05
77
0F
74
0C
7C
09
0F
74
0C
06
7D
73
05
0B
00
6F
11
06
0C
6E
74
7C
71
12
7D
06
09
01
7D
70
0B
7C
02
08
71
10
78
75
0C
76
01
6E
0F
11
70
7F
73
75
7A
75
75
7F
01
70
09
0F
10
03
7B
76
74
7E
73
02
05
07
76
04
7F
01
79
71
73
78
79
6F
7F
73
73
0E
02
75
70
73
0B
02
7E
78
12
6F
78
0B
74
09
73
7E
0C
73
0C
72
09
03
08
0C
77
71
6F
09
00
04
05
77
04
07
77
7B
08
71
70
00
0B
7D
76
7F
10
6F
09
0A
7C
78
7A
7F
12
72
01
72
0C
08
75
75
11
73
07
0A
70
09
73
6F
04
03
7B
07
7B
03
03
02
07
73
09
7B
09
72
00
7D
78
10
0B
05
7F
01
12
00
7B
0F
0C
7E
07
7C
00
79
77
02
71
71
78
0E
12
09
0D
08
75
79
75
7C
7D
79
06
7B
07
0A
7C
06
10
7C
0B
09
7F
71
09
12
06
7E
08
06
75
75
09
0C
79
7A
76
7D
73
70
73
7F
0A
0E
01
79
78
7B
72
03
07
75
01
11
09
03
7B
73
06
03
0A
78
7C
6F
05
01
74
70
0A
70
07
72
78
03
7B
7E
0E
10
08
01
75
6F
70
7F
00
03
71
00
7D
06
01
00
0E
73
04
6F
77
7F
00
7B
74
76
7D
7D
78
11
6F
75
76
01
07
09
11
12
0E
12
0C
7A
78
10
02
09
7F
01
73
03
0D
7C
75
0A
0B
0B
11
11
75
00
75
02
71
71
70
7C
78
7D
06
0A
78
7E
00
06
02
0A
75
75
78
75
07
72
00
75
77
7E
0E
75
09
0D
7E
0E
02
7C
6F
7E
0C
09
08
0B
75
7E
07
76
0A
7B
7F
10
72
09
00
0E
6E
0A
07
0F
12
78
01
7F
09
03
77
77
0F
6E
7F
76
02
03
76
00
7F
7A
7E
72
0E
0F
04
11
0C
03
76
72
03
7E
0F
70
06
77
09
7F
78
6F
79
11
05
11
09
10
00
72
0C
07
74
06
04
74
0B
09
7B
7A
0C
01
10
0B
00
7B
7B
7F
6E
10
0F
02
01
76
04
75
73
7B
79
10
0B
74
72
70
72
79
76
7B
05
77
7E
7A
0A
00
09
08
07
01
04
75
73
7B
09
0D
0B
11
07
11
7C
71
12
0E
7E
00
78
77
07
77
11
75
06
0B
6F
05
7D
75
7C
10
04
11
05
0D
03
0F
7F
08
10
78
10
77
79
01
0D
0A
07
09
0D
11
0C
01
09
76
7D
0F
0A
07
0C
04
05
74
79
79
11
78
03
04
02
7E
76
08
08
09
0D
03
7A
7A
10
7B
0E
11
77
7F
76
7A
74
71
79
0B
01
76
75
7A
05
05
0E
01
78
6F
09
10
7C
78
05
02
03
7A
00
04
11
07
04
0F
76
0E
0B
72
71
7F
77
76
79
0A
7E
0B
0E
06
08
04
71
73
76
02
01
70
73
0B
79
01
11
77
7D
03
6F
7B
72
79
0B
71
11
7B
0B
03
7A
76
08
05
7D
10
75
03
77
0C
09
05
03
6F
7C
76
09
79
71
70
7D
0E
00
77
0B
04
08
05
79
71
07
12
0C
08
0C
11
03
0D
01
08
12
70
02
6F
0A
04
0E
74
73
78
03
11
07
72
05
02
76
0B
75
05
77
7F
78
7D
08
7C
03
0D
0C
11
71
76
10
70
6E
7E
74
7C
0B
79
01
7F
78
04
6F
0A
02
03
71
08
00
6E
04
7A
0E
7B
70
01
09
02
05
7D
0B
01
6E
6F
71
77
06
11
01
03
03
78
0A
10
7C
11
6F
07
71
0F
6F
7D
09
71
74
7F
01
75
12
0C
0D
11
04
73
7A
02
02
7A
0A
6E
0E
6F
05
04
7B
12
10
76
78
05
7B
78
75
12
74
0E
01
77
7C
08
09
01
08
0C
07
7A
0F
12
05
6E
75
72
08
0F
7F
76
09
7E
77
73
0B
7D
7E
07
7D
08
00
78
06
6E
70
7B
7C
71
0E
0E
79
0C
7B
0A
0E
7B
11
0F
0E
70
0C
04
11
00
6F
7A
78
08
11
04
03
08
78
03
7B
07
09
7D
0B
0F
7F
06
72
77
0B
79
11
00
77
75
79
0F
10
70
70
77
72
0A
0C
09
7C
6E
73
70
0D
07
7A
0B
75
0B
7F
05
0E
0A
08
72
76
78
09
0C
00
0B
7A
09
79
74
79
10
0D
11
70
0E
76
7F
0A
77
6F
11
08
79
74
77
0E
7D
6F
00
78
7E
6F
71
78
7F
0D
07
6F
05
08
7D
7E
71
07
06
78
7B
74
76
0B
7A
7F
7F
79
09
0A
0C
12
75
0C
04
77
0E
76
74
00
72
10
0C
07
0E
71
0F
0D
07
05
12
06
79
7D
72
03
7B
74
01
7E
7C
15
0F
02
06
7B
77
0E
71
71
7F
0B
04
70
7D
79
75
04
0E
70
72
78
7F
7C
74
71
0A
14
71
79
10
00
07
7F
7A
03
09
0A
06
12
7A
0F
73
0E
74
09
0A
0B
06
0E
71
10
7E
00
0E
0C
74
06
03
13
05
71
0F
76
73
75
08
7F
02
74
7F
7E
08
7D
0D
0E
13
0A
0D
05
08
7B
77
71
0E
73
7A
10
08
07
6E
12
0A
06
0F
76
00
0A
71
04
0C
10
79
0C
7F
7B
73
02
0D
75
03
0E
0F
71
09
7E
08
79
0C
7E
7B
11
0F
77
0E
0C
0C
03
6E
72
6F
12
03
78
0C
7B
00
75
7D
71
05
0A
08
78
05
05
0B
77
0B
02
10
08
71
72
01
03
04
03
77
04
12
0C
0B
6F
7B
08
75
77
77
04
77
05
0E
6F
05
78
0F
0A
76
12
11
73
05
77
7A
0E
09
7D
6B
12
7D
0C
0B
0B
71
0C
09
11
05
18
0F
08
72
74
11
06
06
7A
08
03
03
05
7B
0B
73
0B
04
01
77
71
75
77
02
0F
05
78
04
0D
00
72
0F
01
7A
12
0C
77
04
0D
10
7B
0E
70
0D
09
76
0C
77
10
70
0E
12
10
14
75
7A
0E
74
0A
02
6E
0F
11
79
0C
77
76
08
79
04
77
0E
7E
79
79
79
73
0C
73
6F
77
71
76
7A
08
74
77
06
7F
05
7A
01
07
02
06
0D
12
05
04
79
6F
10
7F
7F
72
75
78
7F
72
07
07
11
04
73
06
75
70
06
7C
01
6F
03
7A
7A
70
10
05
6D
13
04
10
73
0B
74
7A
77
7C
71
7D
6F
11
0F
09
11
71
08
06
0C
0D
03
12
11
00
7F
7F
07
09
7E
74
11
03
0A
0C
01
00
6E
08
02
09
72
10
7A
73
11
12
72
00
06
03
6F
79
0A
7C
0C
7B
71
7C
73
01
7A
0E
72
0D
7B
11
05
7E
03
7F
77
72
13
0D
77
06
77
7E
74
73
7C
05
09
0C
0C
06
05
00
71
0D
73
7F
75
75
08
02
73
6F
7E
7F
75
75
0E
77
73
79
7B
11
6F
03
0C
12
73
7E
10
7D
0B
71
0A
11
7E
12
7B
71
74
75
0D
04
71
7D
03
77
6E
08
10
7C
08
73
13
72
7B
05
11
0B
7E
11
07
09
7D
05
79
70
6C
0A
71
7E
78
04
0D
12
0B
79
0B
08
79
07
09
11
0E
0F
7B
73
71
01
07
07
72
05
74
07
01
0B
72
00
70
11
7A
7F
03
72
0D
79
11
7F
08
04
00
10
79
0E
01
12
7F
0E
11
75
7E
08
0F
6F
0B
00
78
00
7E
0D
10
71
74
02
02
7F
04
7E
76
7D
04
73
08
06
03
7B
77
01
0E
06
11
7A
08
0D
01
09
0B
0F
78
07
08
10
02
7F
01
77
76
0F
7B
6C
0A
01
7F
7C
7C
6F
0D
02
0B
05
09
10
00
01
0E
7D
02
75
70
70
0A
74
06
79
15
00
11
76
7C
06
04
05
05
6F
70
71
02
11
75
72
09
74
0C
6D
7D
7E
74
78
7F
70
09
09
7F
0A
71
72
7D
06
0F
0D
73
03
08
12
74
74
0A
09
7E
75
0C
78
6D
0E
6F
07
0B
79
15
74
6F
06
7A
12
06
03
75
00
76
08
06
76
7C
0D
79
7F
7C
75
73
0D
7E
6F
10
74
79
0F
78
7C
75
7E
0E
0D
0A
72
01
7D
7B
7D
10
0C
0F
7D
77
0E
7A
6F
7C
7A
0F
0A
09
10
77
72
7A
77
73
72
04
7B
07
78
71
06
7A
06
7E
02
01
00
00
05
7D
09
04
7F
0A
02
08
0B
71
02
08
05
71
73
0C
7F
78
73
09
07
7A
70
74
78
0A
0C
7A
04
14
6F
77
0A
06
7B
08
03
04
00
72
01
78
7C
05
76
6D
0C
01
7F
02
0A
07
77
74
04
71
79
04
07
74
09
7B
78
0C
00
73
0D
77
7B
75
05
75
73
7C
73
02
07
0F
09
78
73
73
0B
10
78
13
78
76
7F
75
73
77
7F
04
74
7F
76
6F
79
78
09
0E
0B
76
7A
70
7A
74
75
0D
75
72
11
13
6F
03
14
07
12
0A
0E
78
77
0E
7B
13
70
03
0F
00
74
7E
7F
00
11
77
7B
07
07
79
02
07
7A
09
6B
79
73
05
0F
0A
74
0A
6F
74
0D
0D
70
0B
09
77
76
79
09
10
74
7C
72
03
04
7C
7E
71
0A
07
04
72
76
71
75
70
09
79
0E
0A
7B
02
02
77
77
0A
08
0F
79
78
03
7F
01
75
70
09
00
7E
79
0A
07
01
7E
78
74
6E
01
0D
0F
12
00
03
7A
73
6E
72
7E
12
02
72
73
7D
7E
71
79
10
0C
78
0C
70
0E
76
7B
0A
02
07
71
0A
7E
04
7C
7D
09
08
0E
08
0D
0F
0B
11
03
71
71
7F
75
79
07
7F
72
06
02
0D
76
0F
78
75
0E
71
76
0E
7E
12
0E
0D
77
77
13
74
09
0B
05
78
7E
10
01
7E
04
7A
7F
0A
09
79
76
08
7D
0D
6F
71
11
7C
00
12
0E
02
0A
73
0C
74
77
72
0C
74
6F
79
75
0F
6D
01
06
01
77
04
11
02
7D
71
72
76
06
74
75
7A
69
06
73
7D
77
75
0E
04
0D
77
7B
11
07
0E
74
7B
0A
11
11
7B
0C
6D
73
07
6F
74
06
6E
03
6E
71
05
78
0E
09
7A
6C
72
09
03
01
76
06
7A
70
71
79
0F
09
0A
75
7C
7F
74
79
74
7B
03
7F
02
74
7C
78
04
0F
79
73
78
04
0B
6F
0F
70
7D
08
0C
78
05
79
72
07
02
0F
04
05
78
0D
77
72
05
12
0E
77
7F
11
0E
03
79
08
0E
05
79
6F
73
75
0C
0F
7F
08
06
7C
05
11
76
7D
7D
7E
6F
10
74
77
10
05
7D
0F
07
05
01
10
06
0D
08
73
04
12
73
06
7C
0D
0C
74
6E
00
10
78
72
7A
74
78
7E
0E
71
74
00
09
77
77
12
0B
10
70
7B
0B
70
0C
03
0B
05
72
72
04
0F
0D
07
07
0F
7B
03
00
73
78
07
70
08
76
7C
0C
04
02
71
07
11
78
09
70
00
10
0C
75
7D
70
11
7B
00
71
03
11
03
0B
78
77
06
78
71
7D
03
10
71
7C
73
7A
03
79
7C
70
00
78
76
7F
0F
7F
78
06
76
0C
0C
04
03
0F
75
07
11
00
0A
7D
79
70
07
73
0A
77
0C
73
04
0C
71
79
02
09
72
0C
75
09
7D
12
6E
09
0E
77
10
78
11
09
70
12
7C
73
04
78
11
06
0A
70
77
79
0E
0A
11
00
72
75
7B
7E
74
6F
02
73
07
04
7D
04
79
73
05
77
0B
78
06
7C
06
06
70
7C
70
0F
7D
0B
04
0D
76
7A
11
70
7D
08
79
78
05
03
0E
0F
02
76
0F
73
12
12
78
71
71
07
7C
0A
09
73
7C
79
00
05
11
7C
0A
02
12
09
09
70
03
0F
7D
7C
76
07
0E
05
0F
70
79
7E
7B
7A
10
74
79
7E
6E
10
05
09
6F
10
01
76
7C
76
76
7A
79
76
74
08
78
76
0E
79
72
7D
0F
0B
0A
78
0F
7F
00
0D
7C
01
0B
74
6E
7E
75
04
6F
0A
0F
0C
0C
7E
02
0E
74
06
01
12
73
0B
7E
6F
07
01
0A
0A
74
7E
77
0F
74
7D
77
7F
71
05
75
6F
09
09
6F
0B
7C
6F
73
08
09
78
7B
08
75
78
7C
71
7C
11
7C
6E
7B
71
00
00
72
02
11
09
7E
6F
0F
0C
73
00
79
72
03
01
7F
01
0F
6F
6E
77
0B
0C
7A
0B
0A
73
0B
0E
01
78
06
71
05
03
00
72
78
12
78
0E
71
06
08
0F
7A
75
02
10
7B
73
03
0E
77
0B
7A
7B
09
09
7A
6E
11
79
06
75
0E
7E
76
78
05
0C
01
00
0E
73
71
09
79
01
78
11
09
08
7F
77
0F
02
74
7F
75
76
0D
03
7A
7E
11
79
77
7F
07
0E
05
76
7E
06
0D
7E
12
0B
7C
03
78
77
0A
74
02
7C
72
04
00
70
0D
7B
72
01
7B
72
76
78
7E
0B
0D
72
70
11
02
0E
79
03
7F
7F
01
74
79
71
01
0E
7F
72
07
06
0C
7C
11
07
05
70
01
6F
07
09
09
03
73
06
73
72
00
6F
00
70
02
7F
7C
0D
00
7A
0F
70
74
11
78
05
09
6F
7B
0E
78
0F
06
74
7A
7D
70
7E
02
7E
10
70
6F
7A
7B
04
10
76
0C
75
02
02
0E
7E
76
7C
7E
0E
7D
0E
72
77
0B
04
06
7E
06
7D
7C
02
7E
02
00
05
75
72
6F
7A
77
74
70
6F
12
0E
0B
02
06
70
09
0F
06
74
06
74
74
0A
72
7D
79
71
7A
03
72
0F
09
7D
11
7D
7D
7E
72
06
74
07
01
7B
09
11
0E
7F
09
01
70
07
6F
71
71
7F
7C
7C
72
78
74
70
05
03
05
02
7D
11
10
7F
73
74
7A
0A
09
0F
03
78
06
74
0A
06
00
07
73
12
12
0F
7D
70
77
05
0B
12
6E
08
78
79
06
01
7F
0A
00
0B
72
74
0C
74
04
74
7F
03
7E
04
74
0E
00
73
73
75
6F
08
6E
6F
03
7E
11
06
7B
0C
79
0A
77
73
08
09
74
7C
79
00
0D
0D
77
0C
0C
02
08
04
09
6F
08
73
02
79
78
06
73
0C
73
04
78
0D
76
08
75
08
01
08
73
09
6F
0D
01
11
7E
04
76
0C
75
11
02
04
71
7E
7E
77
78
70
07
0A
03
08
0E
7A
11
7E
70
7B
6E
11
7D
11
00
08
09
01
00
0E
70
0E
11
12
04
78
75
03
7A
78
07
10
70
7D
09
03
01
74
75
0D
7F
75
03
7C
0E
7E
0E
7F
04
75
00
7D
0C
78
7E
74
04
78
10
7B
06
0B
77
05
04
7B
72
0E
73
04
7C
0E
75
12
75
0B
6F
7D
03
0D
6E
7B
0C
74
75
6F
0B
00
73
02
70
76
78
7B
11
03
00
0F
01
07
11
7C
09
71
73
7B
00
00
0C
12
07
0E
05
0B
0B
0A
05
6F
7E
76
08
02
7E
09
7D
7B
72
04
6F
6F
05
00
0F
70
73
78
74
06
77
7D
09
70
03
7F
06
08
7A
70
10
78
0D
76
09
72
09
00
78
6F
75
0F
73
0D
0E
76
05
10
74
08
77
7D
7C
7A
7F
78
05
06
7A
05
7F
76
7D
75
09
75
78
74
03
0B
7A
0D
78
06
7D
03
6F
73
7B
06
71
06
02
77
0B
0F
7C
70
7E
7E
11
03
70
73
72
07
72
0C
09
74
7E
7B
0A
0D
07
7E
00
7A
01
76
78
7C
74
02
07
0A
72
05
79
70
7E
0A
78
08
04
0E
06
01
75
74
0E
05
0E
06
7F
11
04
7C
08
70
6F
78
02
77
0B
05
7C
0E
0A
71
0C
04
05
70
6F
08
01
71
72
77
0A
70
0C
70
08
75
72
7D
78
6E
77
7C
02
02
0F
00
04
0F
70
7F
76
12
7B
04
79
73
03
11
77
07
71
72
7A
71
7E
78
7D
09
11
0E
11
7F
75
08
05
7D
72
08
0B
08
00
04
0C
06
7C
76
08
03
72
74
73
06
09
05
07
6F
74
78
75
7A
03
76
0F
78
6E
77
76
0A
05
00
00
08
7A
06
72
7F
11
71
09
79
0C
05
0A
07
0C
71
78
09
7B
74
0E
78
0E
78
76
7C
00
7D
71
02
0A
7D
02
04
00
78
0B
75
6F
79
7B
74
0D
10
11
06
11
09
7F
77
00
79
0A
11
7F
73
78
0F
05
77
6F
79
02
6F
08
0F
0F
76
7D
06
72
08
7B
08
03
0F
76
7F
0D
7F
0D
05
7E
11
7E
7C
00
76
03
6E
7C
79
7F
78
71
0D
01
71
0F
77
04
0D
04
75
01
08
09
08
76
7A
02
76
11
76
71
72
0E
70
01
0D
05
79
72
74
01
07
08
11
0B
11
0E
0D
12
7D
0B
7A
70
77
11
0A
05
7E
79
09
7D
72
03
72
78
04
0D
0E
7B
07
7B
6E
76
70
0E
6F
04
0A
09
0B
01
7B
04
7F
74
6E
0D
01
0D
08
72
0D
0D
7F
09
7E
07
79
77
74
11
7C
76
7A
07
70
0A
70
78
06
73
0E
70
7A
0C
6F
75
04
7F
0F
7C
6E
0A
0A
0E
0A
12
7C
0A
75
00
7C
0D
02
72
05
0E
79
78
7E
71
01
76
05
0F
04
74
11
0A
0F
0C
06
0F
79
10
72
0A
02
01
7E
0E
00
74
05
75
6E
78
73
04
07
79
7C
6F
76
7B
6F
7A
7F
04
02
04
02
01
74
0D
75
76
76
73
07
08
10
75
00
73
7D
78
01
7F
0B
77
03
0B
75
76
6F
70
10
74
7E
78
02
11
07
0D
6F
02
7C
73
0E
09
09
7F
00
0C
12
6F
0F
07
03
0F
70
0D
0A
72
0C
7D
72
72
12
08
01
6F
70
08
0F
74
0C
03
71
0C
7B
7F
0D
73
0A
05
08
02
76
76
7C
02
05
09
72
0E
06
6E
72
75
7F
6F
00
05
07
0B
0D
73
75
0C
76
0D
75
01
79
03
0C
7A
74
03
09
71
73
0A
6E
11
0D
04
7D
74
7E
0C
0B
7E
11
02
00
04
01
75
11
0B
78
7F
7C
0B
03
70
7B
76
74
70
0F
6E
05
75
0E
70
7E
01
0D
02
70
07
00
7E
00
78
74
03
02
6F
78
7F
0B
71
09
7E
7D
11
07
00
7D
76
79
78
0F
6E
02
0E
04
76
12
73
6F
7A
71
09
05
05
71
72
6F
7C
0F
6F
0C
01
0D
0B
79
7C
78
11
0D
0D
76
05
04
09
71
07
06
01
06
0D
0E
75
00
7B
06
07
00
03
7D
76
10
09
77
6F
0B
03
08
71
0F
10
7B
78
70
01
0F
0C
0B
71
09
73
01
06
7F
09
08
02
75
12
79
74
79
78
73
71
08
0B
0C
07
7C
10
05
76
04
77
7A
7C
79
7C
09
7D
0B
76
71
00
0A
09
02
12
04
79
70
76
6E
7A
10
06
02
72
08
11
70
0B
06
0D
7F
01
10
7C
06
73
02
09
0E
72
04
0C
77
06
76
74
02
0B
79
06
07
75
03
77
7D
74
78
72
7F
7A
0A
0D
0D
00
09
73
6F
7E
01
03
03
0F
7B
11
00
7A
6F
10
7E
07
75
0A
09
7F
70
7B
73
0F
74
0B
75
79
05
6E
09
71
0A
7A
78
0C
7D
06
0B
02
7A
06
04
0A
72
07
0F
01
7A
00
70
72
0F
75
03
0E
09
7C
76
7A
0E
77
79
71
0E
0D
70
0F
0A
07
7C
07
7C
05
74
0F
04
75
03
71
7D
00
78
04
74
0F
74
10
08
6F
79
73
0E
11
0F
0F
0E
78
0C
0F
7C
77
70
6F
7F
70
76
0F
7A
00
0F
7E
06
7A
7B
07
05
71
00
0F
71
0B
0C
02
0A
12
7F
0D
7D
08
7D
12
01
0D
6F
04
76
02
79
74
73
72
7A
72
77
75
7F
02
0B
79
7B
0A
78
10
70
7D
72
08
78
7C
06
0D
0A
06
70
76
74
79
09
01
79
7D
07
04
7E
07
75
75
74
77
77
0F
07
0A
09
71
10
12
7F
02
01
07
7C
7F
6E
70
0C
78
08
74
01
7A
79
72
72
07
01
78
7D
70
0B
02
04
10
00
09
01
10
00
0A
00
06
0F
0E
70
0A
06
78
7A
7C
01
02
7C
08
74
0F
71
01
7F
09
0F
09
78
7F
70
0B
76
72
04
09
7A
07
07
7F
06
75
00
0A
7C
11
10
0B
7B
12
03
0A
08
7F
0F
0B
75
0C
07
06
78
7A
7D
0D
0D
0B
11
05
0D
7A
7F
7F
0F
07
0C
05
09
75
06
71
78
75
07
0B
09
79
0E
75
7F
77
12
0C
03
08
74
7A
71
73
0A
7D
11
03
11
0C
05
01
10
0A
7C
71
01
74
02
0A
73
78
72
7C
71
6F
71
00
07
7B
77
71
7F
7D
70
72
0F
6F
73
7B
00
7B
7F
7B
07
03
09
78
03
7B
03
0C
7F
04
7C
0D
0D
7B
7D
07
7B
76
77
78
10
70
10
0D
11
72
08
09
72
76
79
11
04
04
05
0B
75
70
08
11
74
71
12
7F
03
01
0B
09
11
7E
0D
0A
08
6E
6E
73
7F
07
0A
09
06
7A
7C
7A
78
7E
78
79
72
7E
78
10
78
04
78
0F
70
7F
7F
79
0D
71
6E
7B
06
0D
0D
78
77
0F
7E
77
6E
7B
75
7B
0A
77
00
01
7C
76
7F
74
7D
7A
11
05
79
7E
0A
78
73
07
11
09
7B
7C
04
6F
01
7F
04
79
05
11
6F
78
73
73
7B
0A
0E
7A
71
0B
0B
75
07
10
04
78
6F
77
7C
7E
10
7F
73
00
08
0D
76
02
05
7F
7A
02
00
12
04
00
0B
7F
0C
70
05
7C
75
0A
01
11
77
72
79
73
76
09
79
06
0A
05
6F
74
10
08
06
07
05
6E
7D
73
73
7F
03
0E
6F
73
02
77
7B
75
0E
09
0C
0D
6E
00
09
74
0B
0F
7D
70
77
7C
75
03
0D
11
0A
03
06
73
0E
73
78
70
77
12
09
01
7B
77
03
05
09
07
72
0C
0F
11
6F
0A
70
7C
09
79
0D
11
05
13
0C
08
79
7D
7B
73
00
0F
0D
73
73
76
71
06
09
76
6F
0E
6E
74
79
0C
05
06
00
7D
7F
03
12
73
03
75
08
0A
6F
05
77
0F
0E
11
71
72
08
13
7A
71
7E
03
79
05
0E
71
0C
00
74
03
0B
12
03
76
7F
00
03
72
77
02
7B
09
73
77
7B
7D
00
71
78
74
0C
7B
76
08
76
0F
72
7E
6F
71
0C
75
10
04
00
05
72
77
72
76
72
00
77
10
76
01
0E
7D
76
0F
6E
01
04
04
78
76
75
75
7D
12
77
0C
00
02
0F
06
08
06
0E
7E
00
75
7D
7E
00
01
11
7D
7E
00
09
0C
7F
7F
7A
05
06
00
00
7D
7A
09
72
7E
75
75
03
7B
00
0E
05
06
08
05
12
77
79
12
76
72
02
05
6F
05
75
70
6D
70
7A
11
05
07
73
02
03
7C
7A
7D
0C
78
03
74
77
11
75
7C
0B
05
70
74
0C
12
07
73
7D
7D
73
7A
04
71
0E
7E
12
7D
0C
00
04
73
7F
70
77
11
71
73
7A
0F
07
0C
0F
72
6E
7B
05
0C
0F
09
01
7D
04
7B
76
12
06
11
73
07
07
00
01
73
7F
7A
74
08
11
04
77
0E
0D
11
77
78
78
71
0D
70
71
6E
72
03
08
7E
6E
09
01
7B
7F
78
7C
71
09
7E
73
74
72
78
7C
7B
79
02
7E
75
71
04
73
0C
72
0B
05
0C
0B
70
7F
0A
10
72
7B
10
78
78
0A
7C
7A
7F
0D
7B
74
11
79
0B
06
7D
0F
0F
7A
06
0C
7B
74
7E
71
06
74
11
08
11
7D
6F
73
71
05
0E
06
00
74
7D
08
05
70
07
0B
0E
06
7C
78
74
11
74
72
75
6D
75
01
0F
0E
0E
02
7F
13
0B
04
12
71
02
71
7A
7B
04
04
0D
01
7F
13
75
76
02
7C
00
7E
05
0E
7E
0D
06
71
73
0A
74
77
10
71
7E
09
0B
7C
0A
6F
7C
09
0C
07
79
72
73
07
6E
0E
11
7F
76
7F
03
10
73
75
73
00
7F
07
0E
09
70
7E
76
07
7D
0C
7E
09
78
7A
6F
0C
0E
73
7D
11
76
7A
79
12
72
04
6F
00
11
07
0A
0A
70
09
6F
0C
7E
06
08
73
7A
7D
79
77
0A
70
11
09
09
07
03
7A
08
03
74
05
70
08
00
76
07
03
06
7F
7A
01
12
10
74
70
0B
04
03
77
72
77
09
00
76
0B
72
0A
07
6F
06
02
7B
06
01
72
00
6F
7E
0F
78
77
7C
78
0D
78
0E
7C
0F
0F
01
02
01
0B
02
0D
76
75
08
79
79
73
00
00
0E
03
0A
78
78
10
0E
6D
6D
05
7B
7E
14
08
09
11
06
09
09
02
76
7A
06
7D
71
07
06
7D
0B
76
75
00
7E
7C
14
09
76
05
08
75
0B
08
0B
04
00
05
7B
6A
7D
11
75
70
70
7A
0B
76
6B
0A
0D
0A
77
04
7D
03
0F
7C
14
76
70
7E
75
0E
6E
7B
10
03
79
7A
71
0B
70
71
72
10
03
01
7B
0E
7E
10
70
73
00
7F
07
0F
01
0B
0F
08
0D
05
78
0E
0E
03
76
72
75
10
0C
10
76
71
09
04
12
0A
0A
09
14
0C
75
02
0B
74
73
11
71
04
70
03
0C
77
00
7D
07
7D
0C
10
01
11
0C
05
0F
11
09
75
0B
09
79
01
7D
7F
01
04
7D
76
0B
07
7C
72
05
07
09
71
07
0D
00
78
7C
0E
11
78
7F
06
7A
7D
0E
03
7D
0D
7E
10
03
0A
01
6D
72
7C
7C
0D
00
02
75
10
11
72
02
0D
7E
71
08
76
7C
0E
00
77
71
05
02
7D
11
6F
6B
7E
76
02
79
02
12
0B
6F
05
0D
0E
7A
76
72
0C
06
72
11
12
7E
00
72
71
05
07
03
70
0C
75
7D
0D
02
0E
7D
07
0F
0B
75
71
05
77
75
02
07
0F
05
7C
70
07
72
0B
77
0A
04
71
13
6F
7A
0A
01
10
78
6E
76
09
7D
7E
00
07
09
70
79
7B
04
11
7B
0F
70
79
0B
77
0B
10
78
11
09
0B
0F
08
71
09
0B
7D
0B
0F
6F
73
74
00
7E
01
79
0C
06
05
08
7D
06
0B
0E
72
04
6F
77
75
0C
0F
74
0F
7E
0F
0F
6F
00
00
08
00
72
0E
78
75
0C
71
75
7D
7F
77
78
7A
04
79
01
6E
13
0D
70
11
7D
08
7E
7E
0A
7D
02
75
7B
78
01
7B
74
05
0E
73
6E
73
0F
6F
7F
02
10
7C
09
0F
71
02
73
08
76
7E
00
74
0E
7D
74
78
78
7C
7F
12
07
7D
09
79
7B
79
0C
78
74
07
75
0C
0F
05
01
14
76
7F
75
10
05
77
7B
73
0F
0B
79
0F
79
79
03
11
06
6F
6C
77
79
02
7D
01
13
06
07
05
75
0F
7F
08
76
02
0C
0F
07
17
10
75
06
74
11
76
78
0E
0F
7D
04
7F
00
12
6C
7E
6D
13
08
7F
7E
7A
77
01
76
74
0B
07
7B
06
7C
05
00
6F
7E
0F
7B
01
0E
7E
78
70
02
0F
75
05
78
0F
10
12
04
04
0E
6F
70
0D
0A
7F
75
07
10
74
79
7A
04
6E
71
7E
71
7C
7D
6F
7A
7C
03
7D
0F
74
00
04
0B
00
7F
74
08
76
79
7E
02
0D
6F
06
0F
70
72
7B
75
78
12
08
10
07
03
70
0F
08
6E
79
78
01
72
77
08
76
12
01
6F
0F
02
72
77
11
02
70
7F
0F
05
0A
09
7F
70
0B
0B
05
12
7B
04
7F
7F
0A
6E
7E
7A
0E
77
0F
01
0F
71
73
10
6F
00
7F
0C
05
74
72
0E
00
7E
78
00
7B
05
74
0D
76
05
0F
0B
04
06
0D
10
0D
05
74
75
74
0B
0B
6F
7B
0D
78
75
0C
72
01
04
7F
75
77
04
01
13
72
7C
0A
77
7F
7B
72
01
06
7E
13
00
7A
00
76
08
07
05
02
04
02
73
09
78
0B
7F
05
11
11
11
03
0D
76
71
0A
07
0F
0F
6D
76
7B
70
7D
01
03
7E
7B
7C
0C
78
10
7D
78
7F
7B
01
04
71
00
00
73
01
7E
0C
0A
72
6F
70
74
0C
71
71
10
78
7C
03
75
06
73
71
76
78
00
75
0E
09
08
7E
71
0D
7C
76
73
08
04
02
73
76
07
12
6F
73
07
12
73
06
0B
0E
7F
7C
06
6F
06
7A
7B
09
73
73
0B
7F
0C
0B
71
0E
78
10
0D
6F
78
7E
7A
75
07
74
0A
73
08
0A
0A
13
0E
0C
0E
05
7F
0D
03
75
09
10
6F
7F
0C
0F
08
71
7C
09
73
0A
73
74
7F
07
02
75
0E
04
6E
7C
74
79
7D
10
7D
77
7C
08
11
79
0F
06
70
03
73
79
02
04
0B
01
0E
04
78
71
03
04
71
0D
77
70
0A
71
0D
02
06
70
0B
07
74
71
72
11
05
01
7B
7F
03
77
70
7E
10
73
01
11
6E
79
0E
6E
0C
03
71
7F
00
71
75
06
7F
00
7F
0F
7A
00
0D
09
7C
03
0E
72
0B
0E
05
03
08
0B
01
0C
75
7E
0C
75
70
7F
7D
72
09
09
7A
10
08
78
09
0C
0F
7E
0C
7D
0C
0C
7F
79
05
02
07
70
73
0A
0B
10
7C
73
78
04
74
77
06
70
6F
00
01
6F
07
02
11
12
76
09
6F
78
6F
76
0E
75
78
0C
6F
76
08
71
71
02
7C
08
0C
04
71
0D
77
03
74
78
72
06
7F
7D
00
05
10
00
7B
0B
7A
7C
72
77
7A
7C
0C
7A
08
7D
0D
76
06
70
76
73
74
12
10
0B
7D
0F
7B
12
7B
00
70
07
73
6F
7F
77
7A
0D
6E
02
06
71
01
06
0E
01
02
6F
74
0C
7E
74
7C
08
7A
10
0E
03
7C
0F
7B
09
0D
71
79
75
7E
73
76
7E
01
6E
72
72
78
77
06
07
79
0C
71
79
07
7D
74
7A
75
0D
08
06
79
7A
03
77
02
7C
01
0C
70
7D
7D
0C
0D
74
76
7F
02
74
09
7E
75
11
76
0F
0A
09
71
10
71
11
0F
71
7F
0E
08
76
76
73
02
7A
02
02
09
7C
01
06
0F
0D
78
79
07
7C
11
73
0A
10
10
77
04
0B
76
74
05
14
12
0F
70
0D
73
12
02
7F
06
03
02
00
05
7D
06
76
7C
7A
01
0A
11
0A
08
79
6F
01
75
07
7C
76
06
73
7E
7B
08
7F
78
05
77
12
0C
77
09
00
13
74
0F
7F
78
6F
05
7E
17
7E
10
7B
72
08
07
12
7F
0F
0A
77
73
10
01
12
06
6F
07
0E
06
0F
78
05
77
7B
0C
70
00
71
7C
0B
15
79
79
08
7E
08
08
7C
73
7B
7D
71
0A
76
07
04
11
76
71
12
0D
06
0B
7B
76
78
7A
76
72
7B
08
7D
74
77
7F
03
03
11
06
11
7C
79
74
75
03
10
0A
7F
7A
0E
7B
75
02
0B
6F
04
0D
74
73
7D
73
06
78
71
00
02
0F
08
0F
7D
7B
79
0A
06
77
0B
0E
7B
7C
07
70
0F
08
75
77
08
02
00
7A
77
0B
11
71
7D
06
71
05
7D
70
70
77
07
05
73
02
74
0E
74
71
0D
09
11
12
04
11
03
7C
09
11
74
77
73
00
77
03
0A
13
0B
01
0D
7E
12
74
10
03
01
0E
05
71
09
0B
0B
7B
01
0B
04
7D
04
0F
70
04
71
00
74
0D
71
12
7E
70
0E
08
0F
04
7E
7F
79
0F
0B
01
0A
0D
73
7D
0D
06
0D
11
08
76
02
0A
73
07
0C
07
05
7B
7C
12
79
72
7C
77
01
09
78
0B
7A
10
77
12
70
73
07
71
7D
02
04
79
0B
73
77
7B
01
0B
09
71
6E
04
10
6F
06
7C
00
7E
75
13
7B
03
03
0D
0C
06
09
10
04
00
10
0E
0C
06
7C
7D
10
10
11
0D
7E
76
0C
02
6E
04
06
78
01
11
7D
0D
7F
08
0C
7D
0A
01
0C
75
79
06
7B
74
71
7E
01
0F
73
6F
13
75
7C
03
03
10
07
7F
0A
11
79
0D
7C
04
7A
7D
0F
7A
7F
0B
00
11
6F
10
6F
78
70
77
02
03
08
76
09
7A
04
09
71
72
04
11
0B
0C
70
08
08
78
78
0B
79
0B
76
09
70
79
11
0C
03
0C
0C
77
08
03
11
7C
73
6F
0F
0B
74
72
6E
06
78
74
02
75
0A
74
0B
77
03
03
09
76
71
7F
11
07
11
6F
78
76
76
09
0D
79
7A
10
04
00
70
6E
7A
01
74
6E
0E
08
72
11
08
7A
70
75
11
11
13
79
7E
7B
77
7C
6F
01
11
04
7A
7C
78
0E
79
72
71
0C
72
77
7D
7D
06
0F
74
11
73
0F
04
73
11
7B
06
10
70
0E
0E
0C
79
04
0F
09
78
7C
7B
70
76
72
0E
7C
7A
09
71
07
72
0C
7B
74
04
78
0F
05
0B
77
10
7C
72
7F
76
71
01
05
78
08
12
0A
75
0E
08
09
0D
05
71
09
03
7E
7B
7A
05
08
72
0F
77
71
76
6E
7E
12
0A
7C
11
05
0E
7D
06
01
0E
10
02
05
00
0C
7E
11
02
6E
05
01
7D
7E
0A
70
05
74
79
0C
06
6F
0A
6F
01
7B
0D
7A
12
08
70
05
0C
08
08
0D
08
78
75
03
03
7A
0F
02
78
11
6F
06
7B
0A
0E
77
7C
11
0C
02
0F
05
0F
04
6F
78
7B
76
0A
00
7F
03
7C
0F
7D
00
0D
71
76
6F
77
09
00
02
0F
09
77
0D
11
7D
75
0E
01
76
04
74
01
78
07
7A
6E
76
7E
01
06
05
0C
08
10
77
76
7C
11
05
12
76
0A
76
09
76
04
73
7C
0B
0C
7B
76
0C
09
77
03
00
7A
7D
76
79
78
7A
0F
75
0E
77
0B
71
6F
6F
72
0B
77
7A
05
76
11
08
09
02
76
10
03
05
72
7A
6E
72
0D
75
03
7F
7A
7A
12
7D
71
0F
13
7D
0E
03
03
7E
0E
7F
0D
02
0F
77
7F
0C
79
70
08
77
74
12
00
7F
7E
7C
0B
0E
09
01
70
11
76
73
77
74
76
03
11
0A
0C
73
11
7A
0C
7E
7D
00
7A
0B
04
71
0E
0F
78
02
02
7F
73
7A
7B
01
0F
0B
09
0A
02
7D
0E
0F
10
03
11
04
0F
6F
70
71
78
0C
6E
07
0B
01
0E
7F
0D
07
11
08
00
15
7A
0A
7E
04
7B
01
7B
7F
0B
01
05
04
7C
04
77
03
03
06
0B
7C
6A
00
04
11
00
07
78
07
10
03
08
09
05
0B
05
12
0F
06
09
0D
7A
76
04
7A
06
7B
7E
74
77
7D
76
0B
7F
71
05
74
7D
73
74
6F
7B
0D
05
01
00
71
7F
09
04
05
0E
0A
01
7B
6F
78
74
75
72
00
75
7C
0D
07
0E
71
7D
78
74
7D
74
7F
10
76
73
6A
03
77
6F
7A
07
08
0F
0A
69
72
79
11
09
7F
0A
74
09
09
11
79
14
0D
0F
71
07
03
05
00
0D
0F
75
05
6F
78
0E
09
0D
77
6D
02
79
78
7C
75
02
72
76
08
12
04
16
02
79
0E
7D
05
04
0B
0E
74
0C
01
74
79
77
0E
7F
72
01
7C
0C
02
05
74
0B
76
7F
0E
6F
7A
08
10
75
71
78
0A
07
05
74
07
0D
0B
07
74
03
13
0E
0F
00
04
0E
72
03
0F
7B
14
6C
76
07
75
7E
74
6E
09
0C
76
78
03
7A
0A
18
10
74
7A
71
0B
08
78
79
08
04
05
70
77
79
0D
08
0D
10
01
01
0E
0D
79
73
79
71
7A
75
7B
0C
0F
77
07
79
6F
7A
11
0E
08
04
05
04
7E
7E
01
09
03
7D
7D
78
04
03
77
7A
79
77
11
0B
03
01
73
73
7A
01
01
74
0D
06
0E
05
6E
6F
01
00
06
78
7A
09
76
02
7D
0C
7D
70
76
0A
08
7E
7B
02
03
7C
07
03
7D
04
6E
7A
77
04
7F
75
7D
06
75
74
0E
0B
79
10
0E
7E
01
7C
00
03
6F
70
7B
6E
6E
73
01
0C
72
7C
09
08
72
06
7D
7B
7C
0D
70
0B
01
09
02
03
7B
6C
11
0F
02
0B
71
0B
73
05
7C
7A
09
13
71
78
03
76
6C
70
7F
71
76
72
11
74
05
76
10
74
02
71
02
7D
0C
09
7E
0D
74
7D
7E
7C
10
00
76
7F
75
0F
0F
0B
06
0A
0F
76
7D
73
09
78
72
76
0D
7C
7C
06
0A
79
7B
7E
14
71
7F
72
01
72
72
74
75
0E
71
03
11
11
11
01
7D
6F
77
75
7D
7C
79
03
08
72
13
76
01
0D
05
0F
08
0F
0B
0E
04
75
08
79
79
79
0F
71
7B
09
0F
0F
6F
02
7A
7B
0A
7D
0A
12
01
0D
12
78
7A
0A
75
0B
7B
10
77
01
71
12
11
70
07
6F
0F
6D
7F
07
0C
79
10
71
03
05
07
0E
76
00
01
13
7E
75
14
79
05
6F
09
02
06
72
71
7E
7E
70
0E
74
72
6C
6F
7F
73
7C
74
7A
10
02
78
7C
09
02
72
11
7B
01
10
0C
03
13
05
77
7D
07
0E
70
0D
00
79
71
74
6D
03
0B
7D
79
09
75
7C
72
7C
06
7E
0B
72
02
0B
73
0A
7F
7C
06
0E
01
74
7B
0D
77
77
7B
7B
07
07
79
6E
0B
72
15
0E
11
78
07
76
71
70
11
7B
7C
78
7B
7B
7E
0C
70
78
01
15
04
08
75
09
05
7F
0F
04
09
73
02
03
09
04
03
0C
6F
74
79
7D
76
02
7D
77
6F
0D
08
0B
09
0F
0B
0B
71
72
7D
03
0B
7C
7A
76
7C
10
07
7A
0B
0A
0D
74
0A
77
75
12
05
77
7D
73
7F
7D
00
06
74
72
05
7F
08
08
06
79
78
0C
77
73
0B
09
7E
07
75
72
6F
12
0D
78
03
6E
10
01
00
01
12
7E
78
7F
04
11
03
77
11
7B
01
10
06
0F
7E
02
76
08
75
76
71
03
0F
77
0D
7B
0E
74
12
07
05
02
02
0E
04
02
7B
7D
75
04
74
7E
05
0C
02
7B
75
7D
77
72
0D
11
7B
04
7F
05
05
05
72
11
0B
08
06
7D
75
70
77
74
09
11
77
09
79
10
0F
73
08
0E
79
01
0D
10
78
01
73
79
01
6F
0D
71
09
78
0B
77
06
03
09
03
73
08
6F
77
76
77
0A
0B
06
11
07
79
0D
0D
06
14
7E
73
7E
7F
10
0A
10
7A
03
7A
05
78
08
09
10
7E
72
7F
08
0C
7F
0D
7E
74
0A
78
09
05
11
6E
75
11
0C
6F
0E
6F
72
77
10
78
79
0A
10
77
72
04
71
71
09
76
6F
12
7C
0E
10
7B
10
75
0F
7C
08
01
02
76
08
0A
77
7B
74
03
0B
04
05
0A
74
0D
01
79
73
0A
76
7F
78
00
0F
02
12
01
04
76
02
05
0E
7D
77
71
74
6F
06
7D
04
7A
70
06
0C
07
01
78
09
06
02
73
08
11
77
79
04
02
6E
0C
79
7D
0B
06
11
7C
7B
6E
7A
73
03
11
0A
05
12
00
0A
11
10
7E
03
11
71
75
04
72
7E
77
76
71
73
7B
75
0E
75
75
7B
0F
0B
7A
76
75
05
00
06
7F
0F
6E
04
05
77
70
74
0B
7B
77
7B
70
7B
00
7F
0F
73
0C
79
12
79
11
79
07
79
00
02
00
75
0A
12
7E
7F
7E
08
0F
74
74
0C
04
77
0F
07
08
0B
08
73
74
6F
76
6F
72
72
0D
06
0B
7A
0C
75
0F
7D
75
0A
04
07
12
7B
7E
0B
71
75
03
76
6E
08
0F
6D
00
72
76
79
71
03
0B
70
03
77
7B
0D
7B
76
74
75
0F
7F
70
73
0A
14
79
76
77
0D
02
00
7E
01
77
75
6C
73
10
07
01
7C
07
7D
06
16
7C
76
71
0F
7E
02
12
7E
0E
06
00
0D
10
7E
07
79
15
06
08
7A
01
0E
7B
00
7C
7A
75
73
01
76
76
02
7C
05
70
09
7D
0D
7F
09
02
7B
01
0A
0F
0E
0F
6F
13
7A
7D
0C
08
09
06
7A
08
00
7D
0B
11
74
03
76
72
08
73
08
01
73
0A
74
08
09
70
0D
7A
71
78
6E
06
77
79
13
06
72
7A
7E
0F
10
73
78
7E
11
00
78
08
09
73
7E
71
7A
03
7A
0E
70
05
73
07
73
12
71
0F
6E
06
71
06
0D
71
75
0C
0A
09
02
04
73
11
04
11
77
6E
0D
04
71
05
7B
79
78
7A
07
0C
00
0F
07
71
0B
0F
76
0B
7C
7D
0C
0D
71
7C
00
6F
02
75
02
08
0B
79
04
00
05
08
78
01
6F
0B
0A
6F
03
7B
01
0E
7B
7F
7B
0B
7E
7B
0D
71
7D
78
7E
03
0B
0F
7F
77
06
7F
09
0E
06
07
73
06
0F
0F
7F
0A
6C
05
13
78
76
08
0B
0B
00
74
73
71
0B
7A
6C
04
11
09
71
0C
70
7D
0D
10
77
02
04
0F
0C
7E
6B
03
76
0E
74
76
7A
75
14
78
04
01
6F
17
0C
76
76
70
04
0B
79
7C
0A
75
08
09
08
11
02
70
0F
70
11
0C
74
02
7D
70
7B
74
05
6E
79
06
04
7C
03
7B
06
7A
02
78
7C
76
0F
79
06
73
02
0C
6E
78
0F
12
78
6E
7C
7A
02
08
05
76
7A
7B
72
7D
79
6F
0E
11
07
00
7D
7F
08
0F
0D
0D
0D
7B
09
07
0F
00
06
10
7F
07
74
0C
78
7F
0D
03
11
12
02
7B
0C
03
71
09
74
7A
14
79
74
0D
7C
75
10
06
6F
75
77
7E
11
71
17
7E
04
77
12
18
11
73
75
7F
02
7D
0F
6B
74
09
04
74
7D
04
08
7F
09
78
7B
0A
12
71
03
77
7C
0C
70
7A
76
08
0C
05
75
79
08
03
01
06
77
7B
6A
02
06
7B
0E
11
6A
05
0D
7F
04
0E
7D
75
6F
78
7A
7C
04
73
0E
06
74
0E
09
07
0B
09
0A
7E
09
7B
75
70
73
07
7F
74
01
0D
02
00
13
7C
0E
07
00
10
11
0F
75
71
06
02
0A
7A
01
0B
07
09
77
0D
04
7E
75
72
0D
7E
10
7F
04
77
0D
00
75
09
0B
7C
02
05
00
7D
71
05
0C
7C
7F
7A
00
7E
00
11
77
7B
01
7C
78
6F
06
0A
09
75
7F
71
76
7D
05
77
77
7D
08
7F
00
11
11
71
0B
08
7D
11
0C
11
15
02
7C
02
0F
03
74
0B
74
01
0B
73
78
04
74
77
7C
0E
7A
7B
74
79
0A
0C
7B
00
00
72
7F
12
17
00
0C
7D
0A
03
02
6F
0B
11
78
04
0D
08
0D
70
79
79
0D
76
16
13
0E
09
7E
09
04
01
7A
11
04
7E
78
05
0E
08
0A
11
0B
15
7C
03
08
7C
7A
01
0E
0A
7B
7E
08
13
0C
0F
76
01
01
0E
0C
79
11
00
03
74
6E
14
7D
75
07
74
7E
0D
75
0F
7C
11
15
09
15
0D
76
75
72
79
6D
03
0E
11
7B
70
00
78
77
75
7C
0B
71
08
0E
75
7A
07
7E
75
74
0F
08
7C
7E
7E
10
0C
0E
06
73
0A
78
74
11
78
08
07
72
0D
7D
76
0A
73
7A
7B
09
12
73
10
79
0D
03
7D
09
01
77
71
7B
74
7E
6F
05
00
0E
09
71
6E
79
0D
76
06
7D
04
03
7E
75
70
0C
7B
03
0E
08
03
7E
11
05
75
7E
6F
7D
7B
78
76
71
73
00
10
70
08
02
0B
79
0E
6F
7F
14
74
71
73
06
75
7B
7D
74
0B
73
0D
02
04
02
74
02
7F
07
6F
7D
7C
00
02
04
74
77
0C
78
0D
0E
7B
7B
7A
7C
0D
07
07
71
69
6D
0B
0A
7E
04
06
75
79
08
7F
76
7B
04
70
76
71
77
77
08
72
72
00
0A
11
0F
7B
00
12
02
13
79
74
7E
02
05
71
0D
0C
05
04
02
11
0B
14
08
05
04
7F
7B
7D
02
05
73
03
76
7C
74
11
71
0B
7C
78
06
12
0B
79
7E
0E
04
72
03
10
12
7E
72
72
09
0E
13
10
7D
0D
77
79
70
11
02
12
10
10
7B
72
03
0C
7D
7A
77
7D
0D
0F
0F
08
77
7C
0A
08
0A
0A
7B
0D
07
0F
73
11
7E
7E
7A
78
76
78
11
7B
13
7A
07
0C
09
78
06
0A
02
12
12
11
78
73
7A
0F
7E
06
7B
7E
02
11
10
77
6F
0B
78
77
79
0F
11
75
11
00
0D
04
0D
77
7E
75
0F
0A
0C
7F
03
7B
7C
0A
09
7B
74
76
78
7D
70
07
03
7D
04
0E
78
01
76
02
09
0B
75
77
75
06
7C
70
73
0A
7A
05
72
07
0A
73
6F
10
09
72
73
04
0C
05
02
04
78
7C
08
02
76
09
01
74
72
11
6E
0A
73
01
7A
11
7A
79
10
0F
71
01
7A
03
11
7F
75
7D
75
76
0D
75
73
0B
7C
00
0C
00
72
12
0C
74
04
01
04
0A
0F
09
12
05
0C
03
74
03
70
72
0B
70
0C
6F
08
76
02
07
7D
0C
02
6E
0B
0F
74
7B
06
7B
79
11
77
11
70
6F
0C
77
07
11
7C
09
78
07
73
05
7B
04
75
07
6E
0A
03
0F
0B
0F
70
7D
71
71
05
0C
06
06
75
6F
06
0A
7D
04
73
0F
76
72
7E
77
0F
76
0E
09
02
6E
74
06
71
6F
77
0B
00
0D
78
71
02
03
06
0D
6E
06
7A
02
0E
08
7C
7D
7E
05
14
01
00
76
06
7C
7C
01
7A
7A
70
05
03
7B
0A
07
77
70
71
74
7E
7E
71
72
79
7D
73
74
08
70
08
0D
0B
7D
72
10
03
7B
09
07
00
7C
09
70
06
07
71
7A
75
0E
73
72
7A
73
71
78
70
03
0A
10
05
6F
10
0B
0F
7B
13
0A
74
0D
71
7A
73
00
7A
77
0E
09
0C
77
0F
78
12
78
0C
75
76
7E
10
03
78
79
7F
02
75
10
7C
09
7E
7F
01
13
03
09
7D
7D
7D
0C
04
73
07
10
7B
75
12
0E
03
71
04
0A
05
7F
02
71
01
0D
71
78
00
78
7A
0E
01
78
7E
04
0E
01
70
7F
0C
05
06
77
75
0C
04
71
0B
0A
07
09
7D
73
04
01
0F
7C
0B
07
0E
7C
10
70
0B
7B
78
72
7E
03
10
6E
07
79
7F
01
7D
0D
7E
79
71
7D
0E
01
01
0B
75
7A
00
79
7B
72
76
76
03
7B
6F
74
11
78
7E
0E
0B
11
7D
0D
07
03
7A
7C
01
7C
7E
06
74
01
05
0C
05
00
78
70
01
71
03
78
0A
05
11
0D
7B
79
0A
0D
7F
6F
72
0F
75
76
7A
0A
6E
0C
14
75
7B
77
77
7C
70
78
0C
03
7E
70
0F
75
71
0D
0D
7A
6F
12
02
08
0E
6E
77
72
07
79
7F
0D
0B
71
10
79
76
11
12
06
11
01
0A
72
7F
06
0E
11
72
7F
72
7B
7C
6E
74
70
06
7C
78
0D
0F
01
6E
02
71
79
6B
0F
00
05
6E
0C
7D
10
0D
7F
02
7E
08
0E
70
75
7D
72
09
11
7B
06
12
7D
09
77
70
77
02
07
15
0D
77
0F
07
7C
6F
0C
0E
71
76
71
0C
0D
17
03
03
70
0D
7F
0D
07
02
0C
09
0A
79
12
0A
73
7D
79
00
75
05
7C
01
0C
76
7C
7D
7D
7A
70
76
02
75
76
0E
7B
7D
79
0B
0F
0A
0D
73
6F
7A
10
09
0A
10
73
70
0A
7B
10
11
10
04
0C
78
0E
05
0A
7E
77
75
72
11
0F
02
79
76
7C
78
01
07
0F
11
0F
02
12
79
0F
0F
00
02
05
0B
77
0B
72
0A
11
06
76
7E
08
09
0F
06
75
7A
70
10
08
10
71
05
0E
75
0F
71
7D
07
00
77
6F
0F
0E
76
75
7C
73
12
01
00
07
7B
0A
73
12
07
77
7E
7C
75
08
71
0C
7C
0F
7D
75
12
76
7E
77
71
7C
70
09
10
03
06
7F
10
75
73
7E
78
00
07
7C
0D
02
71
01
76
03
74
73
06
09
7D
0F
0F
0C
0A
0B
73
78
78
78
00
08
77
08
10
02
0E
79
72
7E
0F
10
0D
76
07
6E
73
01
02
78
7E
72
0A
73
05
79
72
7B
09
0B
08
7C
03
7C
7C
75
75
77
0D
78
02
03
70
6C
74
72
7C
02
00
01
06
0E
02
7E
71
73
72
77
71
78
12
76
73
7C
11
08
7A
11
0A
09
09
0F
06
77
0B
01
7A
72
77
77
7A
0C
0A
11
09
73
00
08
74
05
7D
7D
0A
0A
77
72
6F
71
09
7B
73
73
6F
7A
04
76
0A
0E
05
0B
01
73
79
7F
73
7A
7C
77
10
12
12
02
03
0A
0C
79
06
7D
7C
77
7F
10
0E
72
7E
79
73
77
79
0F
06
11
75
71
09
05
7E
70
0C
03
0F
04
71
03
0A
72
77
75
77
0D
7A
05
79
03
0C
79
7F
76
00
71
6E
75
74
01
03
00
77
07
79
0E
0E
0D
70
00
03
05
79
78
7F
7D
7C
16
01
7F
00
75
00
06
0B
7A
70
08
79
01
0D
74
73
0E
10
74
0C
7C
00
05
70
09
77
01
01
0C
0A
7C
73
10
00
14
08
01
7E
75
06
04
77
05
0B
6E
71
10
79
05
04
10
72
79
70
04
06
7C
09
0D
7C
77
00
71
73
03
08
79
79
05
7D
70
75
01
7C
77
77
0E
71
6F
72
13
0D
0F
71
09
0E
00
7A
7B
0A
6F
7D
0C
00
0F
7B
7E
02
09
73
76
02
04
10
6F
05
7C
07
0A
0B
04
12
79
10
12
78
07
00
01
74
7C
03
7C
05
02
7F
73
06
01
7C
11
0E
73
74
09
7D
10
78
7F
73
03
7A
76
74
7F
0D
0F
7E
0E
7B
7F
7E
73
00
08
10
70
7C
73
7E
7B
07
0F
0D
0E
7C
0C
09
7D
6E
06
05
7C
10
7B
73
0D
75
01
79
71
7A
0A
76
7F
7D
0D
7B
6E
10
71
75
79
01
09
06
74
6F
04
76
77
03
77
08
78
0D
08
7A
02
08
73
07
05
01
04
03
7D
75
07
77
00
71
7A
78
0B
70
6F
78
01
71
7E
7D
77
7B
72
75
7E
7C
77
79
0B
71
03
03
7A
72
77
09
6F
02
7D
70
0A
78
03
12
05
09
76
7C
06
0E
77
6F
6F
6E
10
6E
76
0E
0E
0E
00
02
79
71
71
08
78
7D
72
79
03
75
77
08
73
05
7D
01
0A
70
0E
7F
7D
7D
0E
7E
06
7C
04
77
7A
02
7E
0D
02
01
0A
71
0F
0F
7E
11
7E
0C
0F
7B
0E
7E
09
71
03
71
06
05
09
7A
08
10
74
78
72
07
0A
10
79
02
71
07
71
01
75
7F
76
76
08
08
75
7C
07
71
01
79
07
03
04
7E
10
7A
75
79
7F
71
78
00
01
0C
74
0E
7B
7D
00
04
02
70
79
71
00
0B
6F
7E
76
0C
7B
73
7B
08
07
78
04
06
09
0C
7D
72
73
78
70
03
03
08
0F
7A
77
02
7E
02
01
0C
78
7A
72
75
7A
7C
74
72
09
07
7E
7E
7F
05
7C
00
0D
08
7E
71
79
11
7B
70
04
0E
01
01
0B
73
0D
07
7D
77
10
7E
03
74
71
0A
7C
74
7F
7B
74
73
10
0F
70
05
05
07
05
08
75
0C
11
06
08
7A
79
0B
11
74
7D
0F
0B
75
07
7F
01
77
05
7C
08
11
0D
03
08
77
7D
05
0C
78
79
0A
0C
0C
0E
0D
0D
73
70
05
7C
07
02
08
01
7F
06
73
11
7A
04
76
72
0D
7F
72
00
7F
12
7A
7C
72
11
7E
10
6F
03
76
03
77
7E
04
01
0E
11
02
09
03
76
7B
7B
06
02
03
7B
00
07
73
0C
0D
08
70
6E
6F
7D
10
00
73
00
02
09
74
75
00
7C
75
72
0F
07
7D
76
7F
04
7D
04
09
00
04
01
0D
71
01
00
08
7D
01
07
08
7A
11
7C
03
0C
77
10
00
7A
09
11
78
0A
7F
04
6E
03
73
76
0F
02
01
08
00
7A
0A
10
75
01
03
7B
02
79
7D
75
7A
7E
00
02
0E
0D
7D
72
7F
01
0A
74
70
79
0E
11
08
7B
6F
72
71
0C
79
79
6F
0F
73
0A
0E
09
71
06
75
02
00
01
7A
7A
7B
73
74
06
70
0C
00
73
74
08
00
08
08
08
02
71
0F
00
74
00
03
0C
77
72
0C
0C
7C
71
79
05
10
02
02
70
7F
77
7F
77
6E
11
01
7E
7F
10
70
12
72
04
73
76
05
6F
01
08
70
7D
7F
06
0D
09
7E
72
73
12
11
06
72
7C
08
73
00
03
07
75
79
7E
0A
00
74
0B
79
70
0C
72
6E
6F
07
71
74
73
0A
7A
7E
05
11
6F
07
04
7D
73
0C
0B
0F
7C
77
05
10
7A
7E
12
09
73
03
71
02
7D
07
7E
75
77
09
08
01
70
76
78
7D
79
01
03
05
7C
7A
7D
72
71
78
0C
10
01
7D
05
79
0A
7E
77
78
7F
73
07
02
0D
09
75
73
08
0A
78
04
06
7D
03
7B
08
7B
07
76
7A
73
72
70
77
76
08
12
7C
6F
07
09
72
7A
7D
75
0A
70
00
79
7B
70
05
72
6F
05
7E
7A
7F
0E
09
0B
0F
75
72
0D
03
6F
79
7C
00
11
78
04
06
01
05
05
10
6E
71
72
11
7B
10
09
74
05
7F
7C
71
7D
7E
0A
0C
73
79
72
0A
01
70
07
0D
0A
79
02
00
00
6F
09
0D
7F
0B
71
0A
75
74
77
74
10
10
04
03
05
0C
7F
04
76
0D
12
04
0A
12
11
04
0A
06
6F
00
0A
70
7B
0B
07
70
12
0E
05
7E
0B
11
6F
0D
05
00
0C
06
7A
7C
7F
76
6F
05
06
0F
7A
70
77
07
79
00
08
70
0B
7D
0B
07
10
00
02
03
76
73
0B
03
72
08
03
72
74
05
73
71
78
01
7C
12
6F
02
08
7C
6E
72
0F
08
0B
7E
10
7E
7D
12
72
0C
7E
70
72
70
75
79
0F
75
0C
73
09
6F
7E
04
79
04
7D
6F
7B
0E
74
03
73
03
07
72
6F
79
05
0A
7E
7E
70
76
7F
0B
7A
0C
06
7C
72
0A
73
6E
7A
72
04
0D
72
10
0C
77
79
00
6F
0F
11
74
0E
05
08
76
74
7D
7C
0A
02
79
12
71
79
7F
11
78
76
75
7F
0B
6F
03
0C
7D
79
06
6F
73
7B
70
76
08
78
09
7C
72
78
7E
04
77
07
7B
78
7B
0C
7D
7F
05
71
0C
70
0A
07
74
7E
04
7A
08
0D
76
0B
03
12
75
09
7E
74
7B
71
74
00
11
6F
72
70
70
0F
70
07
06
08
09
0E
09
01
7D
7D
07
04
71
05
79
7F
74
0F
04
6F
75
76
01
7C
02
08
75
0E
74
0A
0F
11
0C
7E
0F
78
04
78
75
0F
74
73
0F
00
0B
05
7C
77
11
71
6E
7C
0D
71
75
0B
07
7A
7D
77
0C
08
71
01
0C
7E
7C
10
7D
01
03
0D
79
6F
07
74
7B
79
05
0F
0B
7D
03
77
6F
0F
7C
74
76
03
06
70
7B
7E
02
72
7D
6E
06
01
0C
73
11
7C
03
04
70
7F
7F
00
6F
05
07
79
77
0B
02
7A
03
7D
0B
6F
7A
0C
75
7E
09
79
11
0E
11
74
0C
7C
11
01
7E
7B
06
7F
0E
03
0C
7D
7F
04
70
02
6E
0B
72
07
00
0E
77
0C
0A
0F
01
00
72
72
0F
6E
72
00
11
11
78
10
0E
07
7E
70
7A
0B
75
73
0E
7F
7C
0C
01
0D
11
06
6E
04
6F
01
79
12
07
77
0B
01
0D
79
0F
0A
74
09
76
77
79
79
0E
0B
04
7C
72
11
7A
02
01
72
05
0D
05
6F
03
08
6D
7F
7A
70
06
7D
6E
0F
7E
79
73
0F
11
09
74
78
71
7B
70
75
06
78
7D
73
75
71
08
11
0C
06
6F
09
70
77
0E
08
7A
0C
7E
77
7D
76
76
00
74
72
0D
05
79
07
77
78
07
78
11
74
74
71
05
0A
7B
13
74
04
07
76
10
70
7E
01
02
75
10
71
07
13
0A
00
77
0D
77
6C
03
7B
72
6E
78
7A
77
7E
74
76
7A
0F
6D
7A
06
05
00
76
74
7F
77
08
7C
78
70
0D
78
79
05
77
03
6C
01
70
03
0A
08
76
10
07
10
0B
7D
04
09
05
0C
0A
73
0F
75
77
00
01
75
7C
79
74
0D
0E
06
76
0E
08
76
06
6F
0C
12
71
11
7D
6F
0E
7F
03
09
0E
0F
7C
79
07
79
0D
7D
0B
0D
0C
05
0B
7F
00
0A
02
75
7C
01
0D
73
78
10
75
05
11
00
73
02
0C
09
0C
05
0E
02
73
7F
10
01
04
12
0B
0E
07
0D
0C
77
70
7A
0C
01
0A
78
7C
78
7B
7B
0B
10
7C
02
01
0C
08
08
05
7A
03
11
0E
70
04
09
0F
7C
0C
7D
0E
70
00
75
0B
73
04
02
76
76
6E
0B
74
73
78
06
08
05
14
11
05
09
07
02
7D
70
7B
73
74
77
70
00
6E
04
05
08
76
13
0D
79
75
7C
09
73
06
0F
6F
07
09
06
08
0E
13
03
0D
06
06
78
6F
74
04
06
05
76
6E
7C
6C
12
78
7A
7E
00
10
10
0D
7B
0B
72
12
7E
71
7F
0A
77
7C
6F
08
02
10
07
78
11
0B
03
0F
00
7D
09
73
04
70
0F
03
77
79
7E
76
12
7C
11
70
0A
71
7D
05
11
0D
7B
08
10
7E
00
74
72
01
7A
07
7D
75
0A
7F
78
73
73
7A
79
7E
7D
78
07
7D
7A
0E
6E
7E
0D
0E
0F
7C
11
74
03
12
79
6F
08
0E
73
7B
7D
73
0E
08
7D
71
02
07
0A
07
05
07
7E
72
00
08
79
0E
00
05
00
7D
00
73
7C
75
09
00
03
04
11
0A
76
07
0A
79
0B
03
08
72
05
11
7C
08
78
06
05
09
0E
79
02
73
74
09
6E
7D
10
7D
7D
11
07
01
78
07
76
10
0D
7D
04
06
04
73
70
7D
06
73
0E
79
11
06
6F
70
0B
0C
79
11
6F
0C
73
00
0C
75
11
14
09
7F
01
7C
74
73
14
11
7E
70
07
78
6F
11
06
70
70
0C
79
7C
71
7C
73
72
6E
79
12
77
6E
7A
73
76
09
10
11
0A
0A
06
05
71
07
7F
08
7F
03
0D
77
0C
7D
03
6F
75
04
0A
01
0F
7E
0C
0E
79
77
6E
08
02
7B
7F
7B
07
08
6C
09
0B
6F
07
72
02
76
7A
73
6A
75
11
11
09
0B
01
08
0F
08
6E
01
76
11
11
0C
75
7C
79
0A
6E
04
70
13
00
0F
02
6C
0F
03
75
7B
77
6C
75
75
09
01
06
7B
12
79
00
69
7D
74
7B
76
78
79
06
79
04
7B
71
10
06
72
71
78
7C
01
73
02
71
04
75
7B
7B
04
07
76
72
78
7F
05
02
6F
75
00
7F
06
74
0E
06
6F
06
74
07
74
10
04
09
7A
73
04
7B
0B
06
04
07
71
00
0D
7D
7F
7D
09
06
01
74
0A
06
09
71
7B
77
04
0E
6F
0C
74
7C
75
75
0B
0D
04
6D
10
0B
73
75
7F
0B
6E
70
73
7C
74
70
78
75
04
78
6F
0F
04
73
7C
00
0F
0B
06
08
11
7E
07
7C
73
7F
7D
05
6E
7A
7C
0E
0D
70
11
6E
11
7C
0F
7E
71
7A
0D
04
17
0F
7F
08
78
11
04
71
07
07
0A
02
77
73
7E
09
7E
73
03
01
07
72
6D
72
7C
03
09
76
76
10
70
77
0F
7D
01
7B
06
07
7A
77
77
78
77
11
7B
7E
00
71
0C
13
73
01
75
01
13
06
7A
7E
7B
07
0D
03
00
78
77
08
6F
7E
71
09
7A
07
06
71
6E
77
74
6F
09
7F
71
0B
15
07
0A
01
79
7F
13
76
77
7E
70
06
0F
11
73
02
03
09
04
10
08
7D
7C
74
76
0D
6F
73
0A
0B
7F
7B
78
6F
7A
74
72
00
01
08
7C
03
07
06
75
11
0D
73
6E
05
77
0C
0F
70
7B
7D
76
0E
01
72
73
04
7E
7E
03
05
0C
07
78
0E
01
00
08
0A
0A
00
72
70
75
7A
0E
09
0F
03
03
7C
11
7C
0E
75
0D
09
78
78
09
73
11
76
7D
0D
0D
04
7F
73
0D
10
7A
70
76
11
00
04
02
0D
70
77
03
76
11
0A
6F
09
7E
0B
02
7A
0E
0B
0D
00
0B
02
04
76
7F
7C
6E
0F
05
78
7B
7C
11
7A
11
76
7B
00
7D
0B
71
01
0E
0A
02
13
0E
7F
0D
0B
06
0B
6E
7F
01
75
0E
0B
0E
0E
05
10
0F
7E
0F
04
0D
12
08
12
7F
00
07
7B
7C
73
0F
10
79
08
6F
05
76
71
0A
04
7E
05
79
09
04
72
0C
0C
11
12
70
09
05
05
7F
7C
76
76
03
7A
02
03
0A
09
08
6F
7A
7F
11
0B
7C
71
0B
76
03
08
06
73
6E
03
0D
7A
10
0F
76
08
0F
75
7B
6E
03
08
0B
6E
0B
72
09
76
0F
0B
00
04
03
7D
73
0A
05
12
72
76
77
07
73
00
10
7C
74
12
7A
0F
71
0D
7C
11
76
08
09
0F
73
0A
6F
6F
02
07
00
72
03
75
77
0F
02
0A
03
0C
03
73
73
04
12
78
74
05
6E
72
05
7A
04
73
09
79
05
09
77
7C
6D
7C
0F
7C
08
7E
6D
0F
7D
6F
74
7A
06
05
7D
05
6F
03
74
7B
70
7E
10
7B
00
04
7D
0B
77
7F
09
09
75
72
6E
7C
72
15
09
72
07
76
08
0E
0C
7F
7B
08
71
07
7A
6E
06
0C
78
7F
10
7A
03
00
7A
01
7D
11
79
10
76
7B
02
7E
70
0C
7C
75
76
01
7B
7B
01
03
12
74
07
7B
08
7A
0B
6F
0D
7A
7D
08
77
7E
70
0F
75
70
0A
14
75
01
72
04
7C
0D
00
75
10
05
10
06
0B
70
77
79
00
07
05
07
71
02
0B
01
07
77
11
76
7F
11
01
70
7E
7B
75
03
7F
05
71
77
11
0D
08
75
0D
76
7F
0B
06
77
0B
0B
71
74
12
09
77
75
78
0B
6E
7A
74
09
7D
6F
76
7F
0B
7E
71
09
70
01
75
6F
7F
77
11
75
01
6F
75
00
00
09
09
15
74
05
0C
0B
04
07
08
7B
7E
7C
05
7D
75
0D
02
05
07
76
7B
0D
7B
76
75
0D
00
0F
77
7D
06
08
74
7A
06
77
10
73
76
0E
10
6F
77
75
11
76
02
11
7C
77
7F
71
7A
78
7C
04
6D
7B
03
02
0E
79
06
05
08
7B
70
05
04
76
73
7D
0A
0E
77
72
7C
12
08
75
7D
0D
11
72
12
7B
76
05
04
09
11
78
04
08
6F
75
08
77
07
7E
74
79
7A
05
06
7F
08
10
75
0A
76
04
0B
01
04
7E
6E
75
07
77
07
74
7B
08
79
7D
7D
11
7B
11
06
77
7D
78
79
76
72
78
01
0B
6E
01
78
02
6E
02
03
12
0B
03
01
7E
7B
72
05
0F
09
05
74
75
0B
7A
02
0B
0F
01
03
0C
0C
72
74
08
7C
0D
7C
7A
04
04
70
06
0B
7F
01
73
0D
0B
75
79
73
12
03
78
6E
05
71
71
10
7E
08
7A
09
79
04
76
0F
13
08
0A
12
10
09
14
08
79
0D
6F
0E
7D
72
71
0F
08
7D
0F
10
73
03
7B
06
0A
7F
06
77
03
03
70
7D
7F
01
01
07
0F
04
6F
76
0A
76
08
77
72
7D
0D
0B
09
11
72
7D
0F
73
7F
76
10
77
78
6D
05
0B
6F
71
7C
74
0B
12
0A
77
02
7E
11
71
07
7A
07
06
06
77
08
06
04
00
10
6F
7A
0B
05
7C
71
72
79
02
75
79
72
02
6E
74
10
0C
07
0C
08
0A
7C
0A
73
0B
7B
7C
7E
11
12
0F
71
0D
00
05
7F
0E
05
0A
0C
71
07
0B
06
0A
04
6E
6F
02
79
0F
0F
05
0C
11
06
08
73
70
7D
71
04
01
6C
0E
78
6F
01
17
0A
74
73
7F
78
74
6B
13
0D
05
07
10
6F
75
74
7A
0A
7A
75
05
7A
0B
7F
10
76
01
04
0F
72
00
0C
06
6B
7A
11
7E
03
77
0E
0D
0B
0F
04
0C
0E
78
7F
00
03
04
06
78
74
70
03
73
7A
73
08
03
7E
00
0E
02
7C
7A
08
06
71
73
7D
7D
7F
77
79
7B
0B
02
6B
0E
79
06
00
79
7B
00
74
11
77
0F
0D
09
7D
0D
04
12
04
6F
7F
6E
0B
7B
01
76
71
06
7D
6F
00
7D
03
7E
6F
01
0C
70
04
0F
72
02
03
7D
7B
6F
7E
6F
00
74
13
78
06
70
12
0F
05
6F
10
03
08
7D
08
79
73
07
10
03
04
79
02
08
7E
07
7C
7E
6E
75
78
08
11
0F
10
0D
75
7D
71
11
6F
78
0F
0E
70
01
7F
7A
0F
10
73
74
03
7D
74
0C
0D
06
6F
0D
02
10
75
73
7D
76
16
7F
7A
7A
09
12
78
04
11
03
0F
07
76
06
00
7F
07
73
7F
10
75
03
01
07
00
0F
75
05
0F
6F
7C
12
08
06
03
70
72
08
0E
00
10
12
11
02
0D
0F
04
0D
03
74
05
75
00
0D
6F
11
73
71
72
04
70
02
04
09
03
0F
0F
7A
09
0D
08
00
08
06
76
7D
03
7A
77
0E
7D
10
0A
74
70
73
02
6E
7C
0F
76
70
00
0A
7F
76
71
0F
14
77
73
13
05
7B
71
02
08
7E
07
74
6C
11
0F
0C
06
72
78
73
78
0F
79
0F
06
72
00
7D
71
7D
0C
76
7D
71
7A
77
06
71
13
75
04
6F
7F
79
71
7A
03
10
7C
05
0F
78
78
74
04
70
09
07
73
04
7D
04
08
7E
12
6F
05
02
01
08
08
79
77
6F
7E
7A
72
10
03
04
06
05
77
09
7C
04
7A
7D
01
02
76
7C
0E
76
08
08
7B
02
74
6E
00
7E
08
09
04
79
74
7B
78
08
7E
7F
78
7A
7B
0B
70
73
73
06
0B
73
03
7B
7D
75
10
73
03
01
71
00
04
71
0F
6E
00
0E
0F
75
00
00
11
7E
03
76
7D
0F
7E
00
09
7D
72
0F
7B
06
79
0F
10
03
7C
06
09
79
7E
0C
79
0B
0F
11
09
6F
74
77
7F
08
78
7C
79
01
0F
7F
05
70
76
08
73
72
07
7E
0D
7E
71
7A
71
78
11
03
0C
7B
0A
11
7B
7C
7E
7B
05
0C
6F
03
02
10
79
71
71
7A
75
10
0C
7C
0A
01
7D
72
06
73
7B
79
08
6D
78
0F
01
72
0A
75
7B
02
06
7C
07
06
71
0B
70
73
12
7D
75
76
05
02
7A
77
75
04
08
7E
12
0B
7A
11
77
05
0E
76
6F
78
73
6E
74
70
78
04
7B
74
12
00
05
73
08
0D
07
7C
76
0E
01
79
7B
04
79
11
0F
03
76
0B
02
73
71
0E
03
7C
09
0A
0E
08
7E
72
73
08
09
06
6A
76
74
0A
75
7A
7F
08
05
04
11
17
7F
09
11
74
14
7F
0E
0C
7C
71
6E
7C
7F
70
7F
73
0D
00
7B
01
6D
03
7B
71
00
6E
76
7E
6E
09
76
0E
6D
73
00
74
75
6F
7D
07
05
76
04
78
76
77
10
08
08
09
7A
05
78
74
0A
00
07
0B
72
05
71
0C
08
7F
05
6E
7D
01
09
79
7E
78
7A
09
00
7C
0E
02
0D
74
0D
7E
02
06
73
0E
77
06
6F
00
02
0A
06
7E
77
02
10
01
79
6F
72
73
7D
10
77
02
06
0C
01
03
06
03
75
0B
05
01
07
78
0F
78
77
7B
10
0E
0E
09
7D
7F
0E
71
77
11
7F
6E
07
7F
0E
7F
77
02
7C
11
07
77
05
7D
73
06
05
0F
11
71
00
7D
77
70
7A
02
7D
77
06
77
06
73
0F
0E
10
04
13
06
12
09
09
08
11
12
01
7C
12
00
76
02
0B
05
00
7C
01
7A
70
70
08
73
10
78
75
78
05
02
02
11
0D
0D
02
7F
75
75
78
01
72
0A
11
07
08
70
6F
10
6C
75
7F
7F
10
72
73
05
11
04
7C
75
71
7F
78
06
17
78
0B
7A
02
11
06
0A
0A
70
7D
01
0D
07
7F
79
7D
11
7E
75
78
6E
03
02
7A
76
03
01
09
11
7C
7F
7B
71
7D
09
7D
11
73
16
7B
0A
03
02
04
72
10
06
07
07
11
0A
7B
7E
77
03
74
09
79
0A
11
78
12
78
0B
75
0C
02
05
7D
0C
07
7C
7B
7C
77
78
10
73
0F
0F
73
09
74
02
04
72
79
05
78
08
7A
72
77
7D
7E
7C
7D
7F
7F
7A
04
77
02
71
00
6F
73
00
08
76
7A
72
03
0A
6F
01
0C
12
7C
05
03
0E
7B
72
7C
7C
70
0C
04
04
08
6D
0D
79
12
01
12
79
06
11
6D
03
04
02
69
03
72
79
79
7D
0F
7E
73
03
04
00
70
6F
09
70
7F
15
7E
0D
79
74
09
7D
7E
10
7F
7F
00
73
76
17
03
7B
7D
70
77
7F
78
01
0C
0C
7A
7F
7E
1B
6C
09
6C
04
7D
75
02
6E
78
7C
04
0E
78
7B
0C
79
07
77
73
0F
7E
05
72
12
76
10
7C
00
7B
76
03
0A
7C
0F
02
7F
69
07
0A
77
78
7E
12
71
78
00
12
70
13
05
7C
03
11
7D
71
79
0F
0D
0C
7F
70
0D
74
0D
72
03
02
00
06
06
11
11
03
0B
7E
0A
0E
0E
0B
11
7E
10
01
00
05
71
01
04
00
06
0A
00
7F
70
0E
03
0B
0C
07
10
72
7B
77
0C
7D
03
7F
7B
0B
0E
71
0B
0F
0C
06
02
01
72
07
75
73
74
0A
01
7B
77
11
7E
12
75
12
0E
7D
74
08
7D
08
01
04
09
70
16
09
0F
78
08
75
05
7A
0D
77
73
09
0C
72
09
04
0B
7B
7D
10
74
72
79
7A
7E
01
6E
05
09
04
7A
07
11
0B
6E
7D
16
0B
02
74
7F
0D
01
0C
0B
0E
7D
75
7C
10
0F
7E
74
74
73
06
76
0C
0F
10
0F
7F
05
13
03
7E
7B
12
13
71
00
02
6F
11
03
7D
6F
7C
6F
00
6E
04
7F
7B
16
73
13
77
0D
71
16
0C
7C
7F
70
04
0E
10
79
71
07
74
12
70
10
03
05
07
0D
0C
06
01
7C
73
09
10
06
7D
72
06
76
0D
7F
05
73
73
74
0F
7F
03
72
75
6F
74
73
03
7B
7F
0D
7F
03
74
6F
78
02
75
11
74
79
11
77
7A
03
0E
02
7A
75
03
09
7F
02
0B
0D
02
05
04
06
02
02
0E
15
7C
04
0B
6F
05
0C
0F
03
75
6D
76
04
72
72
0F
7C
0A
70
06
7E
03
74
72
07
72
7D
04
79
7A
04
14
7E
09
77
10
0B
08
19
0A
7B
11
6A
74
78
6F
7E
0A
12
7E
7D
74
7F
10
0D
6E
7E
7C
02
76
7E
07
0C
74
0E
76
01
71
6F
74
7F
70
0F
6C
76
7C
0B
08
0E
7E
0A
11
7C
10
00
79
13
0D
00
04
03
7E
72
77
6E
7F
72
0E
7F
0F
7F
7F
72
02
7B
08
74
71
06
00
04
09
13
03
02
78
02
7D
00
0B
09
04
78
0E
0D
7C
7E
0F
7B
6E
7B
03
00
75
77
0B
7B
0A
04
09
7B
08
74
75
0A
04
7A
02
0D
0F
76
05
03
72
75
13
06
7E
7A
0F
12
07
71
72
09
70
10
79
0B
0E
01
70
76
07
02
79
7A
6F
74
7C
0F
0D
72
14
7F
00
76
7F
76
79
7D
7B
7F
13
7C
01
73
0C
09
06
07
06
7C
74
77
0C
12
11
11
12
79
76
03
11
77
74
0E
11
76
71
02
10
05
7F
04
13
6F
74
72
10
08
7A
7C
17
15
0C
79
0D
12
10
03
7D
01
76
10
02
0C
03
13
03
09
06
6E
07
08
74
0E
02
10
78
75
06
12
7C
11
6D
7E
0F
6D
7F
00
70
7D
03
6F
6F
77
6F
01
0D
78
79
7D
0E
7E
06
78
0C
70
00
01
79
7D
75
02
10
0E
71
72
74
0E
77
0B
72
09
10
07
01
05
01
04
7F
7C
03
72
74
04
74
7E
7A
77
0B
79
74
00
76
75
6E
79
08
0E
09
08
7D
02
11
03
11
0A
7B
71
0C
75
77
72
78
0F
70
70
76
70
0C
00
0D
73
76
73
6F
6F
72
7F
0E
79
75
04
10
70
7C
7B
07
01
07
73
09
0D
7F
04
05
03
06
79
7E
7D
0E
0A
79
70
08
0B
0F
78
7E
7B
70
08
10
0A
04
7C
01
10
10
04
79
78
78
08
11
75
05
00
6F
7B
6E
14
6F
7A
69
7A
10
78
0D
0E
7D
14
00
7F
76
04
75
7F
10
04
73
72
04
77
72
0E
0C
7C
73
0D
10
71
07
7A
0A
02
08
03
7A
7E
79
02
72
11
00
05
0A
7A
06
0A
7E
71
72
70
75
07
02
0D
0C
0A
77
71
0D
05
0F
75
02
00
15
7F
0D
04
71
0B
0A
7A
7A
79
0A
0B
07
09
12
07
04
0E
70
77
0C
72
77
70
71
01
76
6F
7E
77
02
00
0B
05
10
7B
10
05
74
0A
7F
0B
09
0C
00
0E
79
71
12
00
10
7E
75
09
0D
72
7C
73
77
09
76
10
7C
0E
0C
0D
10
7B
75
05
00
02
74
04
08
70
74
7B
0C
03
77
7D
7F
07
09
71
6F
03
06
72
0E
01
00
7D
72
7A
04
72
01
75
00
79
74
7B
00
06
70
78
7A
00
0F
08
01
71
0D
03
10
08
0D
0A
70
7C
08
79
7A
0A
7F
02
72
75
05
0E
7F
09
0B
06
78
00
75
07
70
10
10
02
01
78
77
7B
7B
7D
10
05
11
77
0E
79
74
7D
7C
10
10
72
76
11
0F
12
10
7E
0B
06
6F
7C
07
7A
11
75
72
75
70
0D
76
0B
6B
05
79
0A
78
7B
0F
02
02
73
0C
72
0A
03
07
71
7B
7D
07
7E
02
0D
0D
72
0D
10
12
10
04
72
14
7D
75
7F
7C
75
01
01
7D
75
00
0E
79
7D
02
03
74
77
06
16
7F
04
78
7D
70
72
7F
7E
01
7A
7F
02
14
75
7E
05
04
04
10
06
70
78
70
14
72
06
6F
7F
0E
0A
7D
7D
74
73
03
7D
7B
0B
01
73
0F
0F
7C
02
0D
00
72
7C
08
06
79
11
07
07
13
77
03
11
0A
77
12
07
76
01
0C
02
7B
7A
04
7F
10
07
7E
03
0F
07
70
0E
79
0A
71
7C
04
79
15
02
78
0E
73
04
03
7F
06
0E
0D
0D
10
0F
71
74
71
77
07
0B
6D
0A
0E
0E
09
04
0A
73
76
7F
08
7F
78
73
7A
7C
12
03
72
7E
12
02
10
02
02
7A
7E
0D
02
7E
0E
71
7A
77
78
6F
01
73
6C
74
03
7F
00
74
03
01
01
7A
71
0D
7C
03
7A
7E
70
19
02
75
0F
03
7F
74
76
02
0D
05
07
7C
6F
12
6F
06
01
05
0F
10
13
08
7B
03
02
74
78
03
6E
7F
06
70
72
0B
6E
71
0D
0B
07
79
6C
11
0B
7C
01
00
01
79
72
75
0D
79
79
72
7E
74
79
09
03
10
06
6F
0A
7A
0D
00
7F
0F
6F
00
06
12
7C
03
04
75
76
78
77
0B
03
0A
74
08
78
06
03
78
7E
09
78
11
79
0E
70
04
07
7D
0A
07
7C
08
7C
0D
78
01
7B
7F
06
07
78
12
02
0C
02
7D
06
07
07
76
09
7D
08
7B
71
7F
03
6E
0E
0B
70
00
7E
0D
12
07
0E
72
0C
71
10
75
7F
7A
0C
72
02
77
09
13
76
76
09
75
7D
15
04
7A
7F
79
02
12
7B
0D
0D
7E
6F
6A
11
79
09
79
07
0C
03
73
76
0B
7B
71
7C
7B
00
01
7F
76
6F
0D
70
0E
71
7D
77
0A
07
08
00
77
79
73
07
7B
76
0F
79
0C
72
05
02
76
07
0E
72
0E
08
72
00
72
01
7B
0B
74
78
76
0B
00
05
6E
00
7B
08
09
08
07
72
73
0A
7D
02
0C
06
0B
04
10
08
0B
06
72
00
00
12
0E
10
70
76
0E
6E
0D
0D
7F
08
08
0A
03
76
75
0E
11
75
01
01
7D
72
06
05
0F
7A
0E
00
71
00
76
7A
02
77
06
71
0D
78
73
01
74
76
0C
11
78
0F
70
79
7D
09
0C
78
0C
04
74
72
77
7F
7A
08
10
76
07
0F
73
6F
06
11
7F
05
6F
78
06
02
7A
6E
6D
05
76
70
79
09
7E
70
03
02
77
06
07
02
72
03
75
6C
75
01
07
08
76
71
7E
69
7F
7B
72
0E
77
6F
13
71
07
09
73
7E
06
0D
00
6E
0F
13
0D
75
7D
73
71
0E
71
75
01
0D
10
09
08
14
7F
05
6D
7B
07
0A
7E
03
10
00
04
11
77
06
06
00
77
7B
06
72
75
75
05
06
0D
7D
0C
0D
02
06
0E
03
79
10
75
7B
7A
02
7F
0A
06
0C
76
70
75
0C
7E
78
0D
0E
76
7E
0B
7D
7E
73
7C
03
75
6F
11
72
05
00
12
02
08
76
6F
6F
76
10
73
07
03
71
7D
03
0A
7C
03
7B
76
0B
05
7C
70
73
01
79
10
05
0B
79
7C
05
0C
01
0E
11
71
7A
00
0B
77
03
76
08
11
07
75
7D
0E
73
10
78
02
72
7D
03
07
76
74
7B
10
6F
16
7E
7A
79
75
78
04
09
7F
73
71
0D
7A
0B
75
7F
7F
7B
02
0C
79
08
0F
7C
7D
04
02
05
11
0A
78
01
09
14
07
71
0E
7C
10
79
7A
01
03
7D
03
7B
7A
75
76
7B
70
06
01
07
0F
7E
6F
7A
70
16
09
0E
78
04
0E
7E
7B
08
7A
6F
03
08
0E
05
09
03
07
0D
70
7E
0A
11
0C
10
10
0E
01
78
77
06
05
7B
0B
0D
7C
6F
00
07
7E
08
0B
07
0F
09
02
09
04
7D
12
79
02
00
7A
7B
03
03
79
7B
12
06
70
04
72
7F
0C
7B
07
71
7E
10
12
74
04
03
0A
77
09
0E
05
71
09
7C
71
0C
11
76
7F
73
73
07
70
03
11
7F
10
6F
7A
6E
7B
78
71
79
72
05
7C
09
7A
0A
7E
73
0D
7D
03
10
00
79
00
7F
05
7D
71
06
75
04
71
06
70
7F
02
75
01
00
78
71
0F
07
78
00
72
77
03
0B
7E
7F
78
0F
7F
0C
7D
73
0A
11
77
0B
73
74
10
09
09
7D
79
0B
7B
04
10
7D
07
72
01
0A
07
02
08
7E
07
7C
0D
0D
78
76
07
02
6F
10
74
09
7B
0B
0A
77
73
6F
7F
77
0D
05
0B
73
0A
77
0A
01
76
0B
74
73
0D
76
03
03
0F
05
7E
0A
09
7B
08
0E
7C
78
0A
05
0A
08
79
09
6E
11
0B
06
72
09
00
70
77
70
0D
70
05
08
74
79
70
09
01
71
08
7C
07
6F
7B
70
00
74
09
12
00
05
06
7C
08
10
79
0A
04
06
11
7C
77
02
72
01
7A
78
7B
7D
02
02
7D
11
05
05
06
12
73
7C
0B
77
09
12
0D
7B
0C
77
7A
73
7A
77
78
09
7A
11
70
75
04
6F
7B
73
0C
77
0C
00
78
06
74
6D
01
00
77
76
0D
7E
0E
76
02
04
04
71
01
06
00
78
0D
7D
6F
7B
7D
07
6E
7D
0D
01
7D
0D
73
0F
05
78
0A
7C
6E
78
07
0E
08
08
00
7F
04
09
02
03
0B
0E
0E
0A
7F
74
79
75
7F
7E
0B
10
0E
7E
02
0D
03
0D
07
75
70
0C
01
0E
74
77
71
0A
02
71
79
78
76
70
05
6D
01
0B
78
0A
75
0F
7F
0D
70
06
03
0C
7B
11
7E
0A
02
11
73
79
73
70
7B
04
74
73
7F
7A
72
0C
09
75
6F
0B
0D
7B
09
05
77
70
72
77
04
74
79
6F
0B
7C
76
70
6F
77
03
0B
11
04
7A
0F
07
12
76
08
6E
73
0D
72
7C
0E
78
70
0A
12
0E
03
7B
04
0C
75
77
79
06
0B
08
71
77
7D
0F
76
10
7C
04
77
78
72
06
04
0D
01
77
0A
12
00
6F
73
10
01
71
0B
06
73
02
06
71
0B
73
70
05
7A
13
0A
70
05
76
70
71
77
74
09
76
0B
75
08
0B
12
01
05
05
78
6F
04
01
7E
7D
10
7F
0C
7F
01
09
0F
0E
6D
77
03
7C
0F
70
73
0F
10
7D
79
78
05
71
7B
02
11
78
07
0F
6E
0D
04
70
73
70
05
78
02
12
06
7F
09
79
09
09
71
02
7A
08
71
7F
72
07
78
7F
71
05
11
7C
0C
7D
73
7E
10
7B
08
07
11
79
76
0D
10
7C
12
73
00
10
11
79
79
11
7C
05
7E
09
0B
0D
74
10
72
0B
7C
0C
70
0B
75
00
05
12
01
7C
7C
77
06
7E
79
05
7A
08
0A
0B
76
76
7F
7E
76
02
77
0E
09
01
6E
11
10
11
06
0D
78
15
04
06
71
70
7D
7F
74
13
7C
7B
08
7B
71
01
08
71
7C
6F
6E
0F
11
6F
12
74
0E
73
0E
73
0A
0C
7E
72
77
02
04
74
78
77
0D
7C
0B
6F
7D
7D
11
04
0F
01
73
7C
75
7E
71
09
77
06
0C
79
0F
0B
7C
71
77
05
7B
7F
08
01
0B
7C
11
0C
0C
04
12
71
71
0E
77
0D
7B
0A
73
7B
09
0E
7B
06
0F
09
73
77
79
70
7C
79
04
06
7A
71
0E
09
73
05
0C
6C
05
0A
7E
02
0E
7B
78
77
00
06
7D
09
0C
08
12
6F
72
01
7E
72
7C
05
7B
09
79
6E
0C
76
7E
7B
06
06
0E
7C
0F
7A
06
0D
03
0F
0F
7E
05
0A
04
03
12
0D
0A
0F
7E
72
74
09
00
75
0B
70
0C
78
02
01
74
06
0D
05
73
7D
7B
05
78
09
08
02
7A
76
00
0C
00
70
71
77
01
0E
79
02
0F
73
10
10
7C
0D
07
6F
10
7B
0E
07
0F
0D
71
71
07
11
7D
02
00
71
7E
7C
0C
6E
10
7C
12
79
00
6D
0B
74
7F
08
0A
0E
0D
7E
78
00
79
02
78
7B
7C
71
7C
6F
07
07
0B
07
71
72
05
05
75
7E
0B
7A
02
05
6E
75
71
11
76
7D
71
0D
79
0D
7B
78
7B
7C
08
11
7D
04
7D
78
74
7A
7C
73
75
7B
11
10
0A
11
7C
7C
04
02
73
74
07
13
0C
02
11
75
08
7D
77
7C
08
79
76
6F
05
11
70
02
06
7C
79
72
7B
04
07
0D
7D
10
73
74
08
13
11
79
03
0B
06
0D
04
06
7A
12
0C
05
12
72
72
09
7B
7F
7F
75
0B
00
7E
72
7F
78
06
7E
7E
76
7B
79
7C
71
7E
70
71
0E
0F
78
04
70
72
02
11
0E
76
07
72
04
72
05
12
0C
6E
0A
7C
7B
6D
0D
0F
78
7E
7D
01
7E
01
71
07
04
7B
77
70
70
7E
7D
04
7E
02
74
74
79
07
0C
01
0D
01
04
06
7C
72
0D
04
08
0C
7E
04
7F
01
7D
01
7D
04
79
06
0A
7C
72
0E
03
7C
0F
71
7F
79
0D
7C
78
06
75
7F
73
03
00
03
0A
08
75
07
72
00
0B
77
76
0D
00
07
72
03
78
70
10
02
7B
7B
0A
02
74
01
7D
74
07
0E
7E
10
78
6F
12
7F
76
7C
00
7A
7B
77
00
00
0C
11
11
76
6D
07
0E
72
7A
01
01
7E
03
76
7F
04
70
7B
72
0B
73
0A
74
7D
72
73
0D
0B
7D
11
00
09
73
09
09
06
74
70
7F
6F
6E
7D
75
76
78
7C
0F
04
7F
08
79
71
7F
7E
10
75
0A
0F
05
75
11
05
79
72
0C
0B
02
0B
07
00
0D
11
7A
71
76
09
02
02
0A
70
77
73
71
70
11
04
6F
0E
79
78
05
11
7A
04
09
08
70
0E
70
0A
77
04
02
7A
05
07
7D
05
79
10
73
10
7F
70
7A
0D
0E
03
7D
07
10
76
78
72
04
70
79
73
11
72
7C
02
7C
7E
12
78
11
0D
05
72
72
70
73
0C
6F
09
7D
73
05
0A
78
07
01
7D
12
0A
0D
6F
79
10
71
7A
6F
01
76
02
0A
08
01
6E
7F
00
09
7E
7B
7B
04
0B
7E
76
03
0D
79
7A
0A
7D
7D
74
75
07
76
06
11
7F
0A
7C
78
6E
76
00
0C
09
7E
73
7A
01
03
03
73
0C
11
01
77
0F
0E
07
10
7F
08
6E
03
02
76
0B
75
11
0A
03
05
08
7D
0E
76
00
03
7C
70
7B
79
73
06
09
05
77
75
70
08
74
72
01
6F
6F
08
06
78
07
78
01
08
76
0C
7C
09
0C
79
7E
0F
07
77
70
11
6E
7C
77
05
02
11
0A
10
79
11
7B
02
07
76
76
7C
10
7C
72
72
0D
7D
7A
11
7C
72
10
7E
79
76
6F
0E
78
02
0F
0F
10
70
0F
00
78
02
0B
0A
01
05
0F
73
7A
08
0F
7E
7A
79
73
0D
11
02
09
0A
73
0F
0D
12
71
7B
71
09
0C
79
0E
73
75
75
0F
79
7B
73
78
7E
76
01
73
11
0F
0A
78
10
77
73
7D
10
0D
12
7A
07
11
72
01
09
73
0B
09
70
06
09
7E
7F
02
7F
01
7F
7B
75
0B
70
7B
0B
00
0B
76
7B
05
78
11
10
0C
09
09
0B
73
11
0C
03
79
0A
0C
0A
0D
70
09
01
79
0E
6F
72
02
05
74
7F
02
03
12
7B
7B
74
7B
77
71
03
03
0F
7F
06
72
08
75
01
0D
6F
7F
6F
77
7B
0E
0D
00
72
6F
00
7D
7D
04
07
08
7E
08
7B
06
03
0A
7F
7A
7C
7D
74
72
03
0B
79
08
03
09
77
78
10
74
00
02
78
7A
11
11
06
74
7A
0A
10
00
75
0A
0F
11
6F
08
00
74
01
77
06
73
10
09
0C
01
7F
7E
06
04
6F
09
7E
72
0F
0A
02
6F
79
6F
76
73
78
12
01
6E
70
74
72
01
77
73
09
01
05
0E
73
7F
07
0F
72
09
0C
7B
75
03
0E
71
7B
00
7E
0A
73
6F
0E
74
11
73
76
7E
71
7E
6E
06
03
7C
7C
06
08
74
6F
0C
7D
0F
74
10
75
73
6F
01
01
7E
7A
74
7F
0C
11
03
79
00
0C
09
77
0B
72
78
7A
7B
76
02
77
76
12
12
70
75
00
01
73
7D
07
75
74
74
12
06
02
78
04
7C
70
7A
79
0B
77
09
0A
73
05
7F
74
05
7C
11
04
10
75
00
02
6F
73
0E
0A
03
74
08
73
0F
7F
07
00
76
0B
10
03
6F
11
70
02
0E
00
0A
74
0A
0A
73
0E
10
73
7E
03
73
0B
04
7D
7B
75
70
04
71
71
70
0E
7E
7F
0B
78
7D
7C
78
78
05
00
07
71
73
00
70
79
08
76
77
7B
08
01
73
73
12
0A
76
79
0B
79
71
00
6E
78
7A
02
7B
6E
04
76
09
7D
76
7E
7F
0C
0A
11
0B
72
06
0E
08
7B
74
76
09
71
7D
04
11
0E
7C
74
11
71
10
06
7C
0B
70
08
11
00
73
7A
75
6F
03
0A
01
75
79
72
78
73
7B
09
10
0A
73
0C
04
10
10
03
00
0A
11
00
72
0E
06
71
06
70
0D
6E
71
09
7D
04
6E
05
08
00
08
07
71
03
7A
7B
08
78
05
0F
01
0D
75
71
77
7F
0C
00
0E
79
75
73
08
06
08
73
0A
08
0E
7E
74
76
07
77
06
74
0B
70
7F
00
0C
0E
07
03
74
78
7D
0F
75
00
01
12
0E
06
09
70
02
6F
11
78
72
0A
0E
6F
0B
03
72
71
11
11
7F
7E
0C
12
0A
08
7A
01
7D
0C
7C
6F
00
7D
10
07
72
77
0A
02
05
0E
12
05
72
7F
78
75
7E
02
07
72
03
78
10
0E
7E
08
11
08
10
77
10
7B
71
02
09
0A
06
01
7D
0C
7F
0F
0C
73
08
0D
0C
0C
77
74
7E
6E
0F
04
00
7C
73
74
76
0A
73
0B
7F
08
75
7F
08
06
03
72
0E
01
74
10
7F
0E
76
00
77
0B
0F
77
74
7B
6E
76
11
11
0A
0E
06
04
10
01
02
06
74
0D
10
6F
7F
06
79
75
79
12
01
72
04
7F
7B
09
75
0B
11
6F
6E
02
7B
6F
7E
76
75
03
06
04
0B
7E
08
70
00
71
6F
74
73
73
11
7E
06
04
77
08
0D
06
0E
78
70
7C
02
11
71
7C
07
04
79
78
00
06
7B
00
7A
71
0C
0D
78
0D
74
06
09
7A
74
7E
08
7E
7D
73
7A
08
73
03
6E
09
72
74
70
01
75
0A
02
71
76
0C
73
0D
74
75
7F
0E
6F
10
75
01
7E
74
7A
72
7C
6E
10
70
02
73
6E
76
6F
76
7B
0C
05
04
01
76
12
05
02
0D
01
79
74
03
0B
07
71
00
00
77
7B
08
74
7B
6E
0A
7E
79
78
6E
0B
7E
74
09
73
6E
00
04
08
0E
75
72
71
7D
04
71
06
79
76
01
75
7C
10
03
72
11
03
7F
12
7C
76
06
0D
0B
10
02
72
0D
78
0E
76
74
70
0F
6E
7D
70
7D
0B
70
10
00
12
0D
7B
04
7D
7B
75
76
6F
7D
0C
7A
08
70
7B
78
7D
7F
71
7B
79
11
07
0E
72
0D
7F
73
03
0B
0F
06
75
77
0F
6F
03
0B
0E
71
72
70
04
02
0F
74
7E
11
02
06
11
74
11
03
12
03
7A
0C
78
7C
77
0B
72
79
6E
71
0D
7F
70
07
7A
7D
6F
73
6F
7E
7F
7F
0A
0D
04
72
72
00
04
72
01
7B
0E
11
0A
7C
7C
13
72
79
00
72
7A
01
03
03
70
7C
79
0E
08
02
0B
78
11
6D
7E
06
04
0F
76
11
73
04
78
78
01
05
0A
0A
0F
11
00
7B
02
0A
04
7F
70
0A
6F
0C
7C
03
06
71
05
03
0B
7C
01
6F
0B
0C
01
0B
73
01
03
04
08
7F
0D
7E
0C
7A
0F
7D
71
0D
7C
70
73
07
09
06
75
06
7C
6F
74
77
75
03
04
04
7E
05
7E
74
7A
0A
09
0F
10
75
7C
12
7F
6F
72
72
12
0C
10
72
75
7E
72
6F
7A
11
0A
0F
7F
12
0A
7B
73
7D
6F
01
08
01
7F
04
79
0D
78
75
0D
7F
75
0F
06
73
7B
7D
03
09
71
01
70
79
01
7D
78
7D
6E
71
03
08
00
08
76
74
79
7A
03
73
03
78
76
74
0C
0A
06
05
7C
6F
12
7F
7D
76
0F
09
7D
6F
07
02
08
7C
0B
0B
70
77
77
74
75
79
09
79
7C
12
75
77
71
0A
0A
0D
0B
0D
05
7D
7B
7C
02
7E
77
73
08
0D
7C
77
71
7D
7B
73
6F
00
71
0E
7E
7A
01
6E
7C
78
73
01
08
0B
7B
6F
7C
00
04
72
09
08
01
7D
02
7F
06
7D
07
7F
7E
7B
03
07
0E
6F
74
11
08
7E
0F
09
70
01
76
76
03
6E
0D
0B
71
0F
6F
73
06
03
11
7C
7D
0D
7A
00
7C
06
0B
02
0B
0C
02
75
0B
0B
7B
0E
00
74
7E
7C
06
71
6F
78
0F
71
73
06
7F
09
08
05
74
75
6F
0A
79
7C
79
75
7E
05
7A
07
76
7D
7F
76
7A
11
08
04
09
7B
03
0B
01
09
7E
75
7B
7E
77
04
11
72
0B
0D
01
7D
7E
07
01
0F
05
0C
0E
14
71
70
6F
75
7D
73
0A
03
09
79
78
12
12
7B
02
00
05
0D
00
7A
6C
03
0C
77
11
01
06
7C
7E
75
71
7C
05
11
10
14
00
70
72
0A
0C
77
0B
7B
0A
07
7D
7B
04
7E
6F
6E
75
0B
0F
7F
7D
6E
14
73
7E
7D
7C
05
09
17
6F
14
04
13
6D
03
13
07
77
0C
01
71
79
01
6F
13
14
00
72
0E
7F
03
6F
76
7D
71
0B
05
0E
6D
7C
08
02
00
05
09
6F
11
70
06
70
70
01
7E
75
0B
00
00
79
04
75
11
04
7C
6F
70
71
7B
0A
04
76
0D
77
79
71
00
75
79
7D
11
01
78
0E
78
00
04
0D
78
7E
74
0D
77
0A
76
78
06
73
0A
05
08
73
73
06
77
70
11
7B
79
0C
6E
04
70
78
0E
0F
79
74
7C
07
75
05
7C
0C
0C
7B
79
70
75
0F
01
05
0C
77
06
7F
04
04
12
05
17
71
72
73
73
0B
09
0B
11
00
10
01
77
79
06
77
7F
05
70
76
78
71
7F
0B
78
70
7B
7F
06
04
74
06
7E
78
01
06
7C
09
0B
02
0C
74
14
7B
0E
02
16
7E
7A
79
0B
7E
75
7A
09
6F
76
06
03
7E
12
02
05
7A
77
76
6F
74
77
02
76
6F
02
03
79
7C
7C
12
7A
74
05
76
07
7D
6D
13
6C
15
7E
7B
73
0E
7D
14
74
79
72
7A
13
6F
7E
09
72
72
7A
18
02
71
10
72
04
05
7B
72
0F
10
11
7C
0C
06
0A
74
7D
7C
11
0E
78
00
76
00
7D
0F
70
7C
76
0E
03
06
00
10
72
75
01
10
01
01
05
77
03
7D
13
12
11
75
04
0D
13
09
72
10
79
0E
7F
07
7E
0A
7B
78
02
0B
08
77
0B
7C
75
7D
71
00
06
01
11
7E
0D
06
0E
0E
7A
7F
7A
77
0B
6D
0B
74
09
0B
7B
02
78
79
06
0F
74
76
0E
12
0E
0C
03
70
6C
0F
0E
06
6F
73
01
7E
04
71
72
05
7F
0A
6D
00
0A
05
0B
72
74
7B
78
06
7A
11
0D
7C
7F
02
7D
11
7D
12
79
17
6E
02
0F
77
79
7C
00
04
06
6F
08
12
7B
0E
02
05
07
77
07
0C
71
0E
0C
12
72
75
77
06
07
74
04
0E
0C
76
7A
71
7A
78
0C
0E
02
6D
12
73
7C
74
01
13
0A
72
76
11
7D
05
0F
7E
14
0E
0D
75
71
6F
7C
70
75
7D
70
77
0C
70
02
04
06
07
74
04
0C
07
75
0C
06
76
79
7B
7E
7A
00
7D
06
70
78
7B
0E
01
74
6F
02
0F
0D
09
7F
71
07
08
6F
02
08
10
7C
73
05
73
74
09
09
08
13
01
03
74
77
75
00
76
7A
7B
0A
02
79
7F
08
02
75
06
71
00
05
71
13
73
09
76
7C
10
72
0F
01
7F
74
05
0A
79
6F
0D
76
7B
0F
75
01
06
07
79
7D
6F
07
75
0D
10
05
01
79
09
05
7F
7F
13
7E
74
01
79
0A
01
10
7C
07
0C
0A
06
07
7E
10
73
72
09
0E
11
77
78
02
0F
11
70
0F
04
7D
7B
05
0C
0F
09
73
07
74
70
0E
08
0C
0A
7A
77
7D
77
0C
04
73
05
74
0C
06
0F
70
77
01
03
0B
73
0C
7B
12
0C
03
78
71
11
03
04
74
0F
70
73
07
7F
7A
04
0B
08
13
72
6F
72
71
0A
73
06
02
0C
75
12
6F
00
0B
0E
0D
0C
0E
0B
6F
7E
76
0F
78
03
0E
77
04
09
78
00
0F
07
75
7D
0D
7F
0B
7D
78
7B
07
11
0A
73
7E
0C
71
0D
09
0F
77
07
7F
7A
75
7D
06
7B
7E
07
71
74
0E
04
78
0A
05
0F
11
75
10
0B
7D
07
08
73
7C
0F
75
7A
03
79
74
79
79
02
75
7F
72
7B
0B
72
0D
7D
10
72
0A
0B
10
7C
79
7F
08
0A
0D
79
0F
00
0E
07
78
78
08
7E
73
7B
6F
7C
0B
6F
7A
06
7B
7E
08
0D
04
7C
00
0A
07
11
76
7A
73
01
01
0B
78
74
7B
00
72
7B
71
08
10
11
10
0A
13
74
03
0E
0D
09
0F
79
0E
0B
7F
0C
7D
11
74
72
7D
05
7F
10
12
00
0C
7D
05
11
71
7A
12
04
74
76
78
0C
76
76
07
71
7C
05
01
76
7C
7F
09
70
0A
0E
03
77
75
05
0F
0B
0A
77
71
02
7D
07
71
79
0B
74
7C
04
0F
01
6F
07
79
09
04
07
10
11
06
09
12
75
79
01
03
11
02
0A
0B
73
7E
10
7E
75
0A
04
7D
7E
0B
7E
08
78
7F
0E
6E
7D
0A
0F
7D
02
04
73
09
71
08
6F
72
7E
7B
74
01
75
75
04
6F
11
12
11
70
0C
0C
76
0F
7E
0D
0F
7D
6E
74
7F
7D
0D
0C
01
0E
75
0C
6D
05
75
7C
7D
15
75
7C
7E
07
7D
7E
79
7F
01
0C
79
7D
72
6F
10
73
0F
71
10
79
10
7D
70
77
09
73
0B
7D
01
74
7A
16
11
01
07
70
7C
09
0E
7A
12
75
08
78
0E
11
7D
6D
7D
77
01
03
0C
08
03
05
7D
75
07
02
72
05
0C
03
05
71
01
0F
7B
03
09
6F
09
79
78
72
75
10
0D
7B
11
6E
0C
09
7D
7B
6E
07
70
03
02
16
09
11
77
79
7E
02
0B
75
13
0A
02
07
00
72
0C
7A
71
0B
04
73
10
0A
0D
01
0F
09
7F
09
06
0F
02
7C
06
0E
74
02
02
07
74
10
0A
7F
78
70
72
76
03
73
04
10
0E
7A
0D
01
03
73
0E
07
7D
05
79
08
74
00
71
0F
07
0E
10
7C
0B
0A
77
08
7E
7D
7F
07
06
7F
11
0B
01
7A
77
77
73
0B
02
70
0D
74
07
03
6D
09
05
08
7B
71
7A
11
0D
7A
76
03
75
03
72
71
73
0B
7C
10
76
7A
7E
77
7D
71
74
7A
08
7A
7F
7A
76
7D
70
0F
75
02
00
0F
01
7F
09
0D
71
03
0F
01
79
07
0D
04
6F
00
6F
75
6E
09
09
79
06
79
77
0A
12
10
79
6F
72
04
72
05
7D
7E
02
0C
72
72
7C
74
7A
74
00
09
71
0C
75
71
7E
6C
0C
05
00
72
77
7D
0A
7D
00
0B
6F
72
09
77
6F
0F
6F
11
77
79
76
7A
77
7F
0F
7A
05
15
00
08
0E
08
78
71
0C
7C
7D
0D
76
0C
10
78
09
01
7A
79
10
6F
05
73
0E
7A
06
10
0D
0D
76
00
0B
7B
7C
7B
05
71
10
0F
76
01
12
0C
0F
75
0D
71
12
7D
02
0E
09
00
6E
07
01
03
0A
03
7F
7B
73
09
78
6D
11
15
15
0A
7B
7F
73
02
07
6C
75
6E
0F
7C
0B
0B
0F
04
06
0C
7E
0C
76
77
0B
7B
73
7E
7B
13
6E
0B
06
14
71
72
03
7F
7B
7C
02
7F
00
05
7E
7B
05
10
04
0C
77
03
0E
75
0E
00
7D
0D
0A
03
72
02
75
70
6B
70
75
6C
0F
75
05
0A
03
0B
00
09
7C
7D
09
7B
6F
00
6F
76
04
11
05
0F
01
73
73
0D
79
75
01
7A
73
04
70
72
7D
76
10
72
7F
76
09
0C
02
7D
09
7C
04
12
04
72
08
79
0A
7C
72
6E
04
78
7A
0A
6E
7B
14
7A
10
13
11
75
76
08
75
73
7A
77
79
6E
01
75
7E
72
75
06
0F
69
07
74
72
03
0A
0D
0D
7A
07
0C
0E
6F
0B
7A
0C
07
6E
08
0E
0A
7C
07
0A
14
0B
0D
0B
01
7A
02
0F
71
0D
75
0B
79
13
7A
79
03
08
7C
00
01
73
04
7D
7E
0E
05
04
6D
0C
78
0D
7A
0A
07
0E
02
04
08
02
7F
02
73
77
70
05
7A
12
77
02
71
7C
6F
70
6C
07
7F
0F
03
6F
6F
0D
74
71
7D
06
06
7E
7D
08
01
73
0D
6F
7A
7F
09
7F
77
0E
74
7C
08
00
10
0D
7F
06
03
77
05
74
0E
00
7B
08
74
10
06
0A
6E
78
12
7C
00
70
7D
72
7B
0C
70
7E
0C
7A
7C
7F
10
74
7F
6E
77
77
7D
77
02
00
0E
76
74
7A
7F
7C
11
71
7D
79
7E
02
6F
71
74
6B
03
08
11
7D
79
7A
78
7B
08
7E
0B
6E
01
04
0F
70
7F
72
02
73
03
0E
03
70
02
79
13
04
0D
7F
0B
6C
6C
74
77
71
05
07
00
09
11
11
6C
75
0C
7A
75
79
0C
72
79
02
79
05
7B
73
7E
04
73
7B
10
12
78
11
72
06
6E
10
7D
7B
10
06
0D
76
11
0C
79
79
09
04
7E
70
04
0E
05
00
09
70
11
07
7E
08
11
11
09
05
79
08
0E
0E
0D
7B
75
03
04
02
74
0D
04
76
7B
10
00
72
00
0E
02
11
6F
02
0A
09
12
00
0A
6F
09
7B
04
74
78
7D
7A
7D
0B
08
07
74
02
06
10
0C
04
72
72
72
0F
04
7D
01
79
07
70
79
7F
06
74
00
78
7C
73
7C
76
08
00
06
72
04
7F
7B
01
0C
72
6F
07
09
0A
02
05
0C
70
04
12
7A
75
0A
76
75
0F
7F
74
75
7C
71
12
07
08
12
74
08
04
05
06
0D
70
00
76
03
05
74
7B
00
02
70
77
75
75
02
7C
73
02
11
7E
6E
0B
7C
09
0B
75
79
0D
7A
06
00
03
77
0E
79
04
76
72
6E
70
7A
6F
76
0E
7A
73
75
0E
05
71
6F
01
7E
7B
03
0F
00
09
10
75
05
0D
70
0D
78
76
07
7A
08
10
03
03
6F
7C
12
00
73
09
06
01
00
08
0B
7E
71
72
00
7A
04
74
0B
11
7D
74
72
75
70
75
75
71
7E
0C
79
0A
7C
08
75
07
77
0E
78
01
03
75
70
7F
0A
0D
7B
04
05
09
78
7A
7B
02
04
03
75
08
02
12
79
7B
72
7F
7E
07
0B
01
6F
72
77
7D
0B
75
78
71
08
7B
74
71
0B
11
7F
11
00
77
04
12
0A
13
7C
0B
07
11
09
06
0A
0A
03
04
7E
6F
0B
0C
03
04
70
09
7B
7E
05
73
0C
7F
70
07
6F
0C
7C
07
01
71
02
7A
0D
72
70
74
79
75
0B
76
7E
10
12
73
7A
06
7F
6F
00
70
72
7C
70
0D
09
77
0C
11
08
10
70
74
09
0C
12
09
7B
75
00
0E
72
05
7A
79
12
7A
0B
02
6F
7A
7B
70
0D
05
73
12
6B
79
7A
0A
76
79
00
0F
05
7F
7D
7B
11
6C
7C
0E
7A
6F
7D
79
09
79
09
0C
01
0A
6E
11
7F
0E
04
72
6E
77
05
7F
07
6E
74
06
04
00
77
07
76
03
7C
09
7C
75
75
03
7F
0D
7E
0E
06
01
08
0A
0B
13
10
7F
71
04
72
0D
75
76
77
0B
7A
0A
0D
01
0B
05
05
77
71
71
72
72
0B
11
71
76
7F
72
7D
07
75
07
6E
05
7B
7E
72
0D
7C
04
7B
76
77
7A
6E
78
0B
7B
06
75
0A
09
75
71
0B
11
09
10
10
07
0E
7A
77
79
73
74
75
71
79
71
74
7C
00
78
0A
0F
0C
0F
11
00
0F
7F
70
01
11
79
79
79
6C
73
0B
7D
00
0D
03
05
0C
11
74
06
07
73
11
0D
76
76
6F
72
07
7D
06
05
00
0D
00
6E
7B
10
74
78
0A
07
06
0F
15
07
12
72
7C
7F
11
03
6D
05
06
13
0D
03
70
76
73
7A
04
0D
70
77
79
0F
12
7D
10
6F
70
79
75
71
7B
79
0C
03
71
6E
01
0A
06
0B
77
7B
01
03
0B
7F
08
73
75
04
01
0A
73
11
74
76
07
74
6F
7F
7D
74
06
03
7D
75
6F
72
17
01
7B
7D
7B
0E
0C
01
0F
7E
0C
03
72
77
76
02
01
09
09
6F
06
78
74
79
02
78
70
70
0E
03
6E
09
7A
71
74
71
0E
7D
7A
7D
09
7B
76
75
74
03
7B
7D
0A
71
7A
7B
0A
73
0E
74
70
0E
7E
01
07
00
0D
74
09
7D
0E
01
08
6F
6E
7D
75
0A
0E
71
03
7E
72
02
0E
72
70
03
7E
09
0E
77
74
17
12
75
0E
08
78
15
11
76
03
78
11
01
75
01
03
7B
07
76
11
12
0F
7A
0E
73
11
7B
77
01
7C
0C
73
0C
79
07
7F
05
13
7A
1D
0C
0A
05
02
0D
78
0D
75
0A
0F
79
0B
06
04
74
71
72
07
0B
0C
00
72
09
10
09
72
06
04
0A
71
10
72
79
02
78
75
78
78
04
7E
0A
01
04
05
05
7D
7B
07
7C
06
0A
7C
0F
7B
0C
0D
6C
72
03
07
75
09
7D
09
7F
74
77
09
73
7E
0E
03
7D
0F
74
11
0C
07
01
79
79
77
03
72
74
76
7D
04
13
72
03
7D
09
10
0D
03
0B
09
6F
7C
02
79
71
6A
05
6E
72
73
07
71
0E
0C
0A
78
74
7D
0C
78
08
7B
76
7B
09
77
10
01
0A
76
7A
10
70
76
0B
02
74
7E
7F
7D
7D
06
0E
0A
02
06
02
75
7A
08
02
0C
0A
11
0F
0E
09
71
76
7F
0E
19
79
74
7F
72
7F
07
0B
0C
0F
0F
70
7D
04
7D
0D
78
08
71
76
0B
72
09
76
04
79
74
75
7F
07
76
7B
79
73
0E
78
7D
7F
7A
72
0B
7F
73
79
10
76
72
70
0D
10
06
70
7C
76
00
10
0A
00
72
14
03
76
0B
70
0B
09
10
7B
7F
78
05
7F
11
14
78
7A
7C
72
07
0E
73
08
08
0B
71
71
7A
0F
00
0C
7D
0E
11
7E
0D
70
01
0F
75
7B
00
13
06
7F
7A
04
0E
02
79
05
6F
10
77
6F
07
71
10
0D
74
75
72
01
01
7C
0C
05
70
0F
71
06
10
03
02
7C
05
0D
02
0C
0E
7A
0D
75
07
10
6F
00
79
0F
7A
06
7F
0C
08
73
05
73
0B
0F
09
6E
12
06
7A
7D
76
0A
10
06
06
76
01
03
70
09
08
79
77
0B
74
7D
02
74
7F
77
7F
0D
6B
73
76
00
78
0E
0D
76
06
7A
77
75
7A
0B
0C
71
7D
02
04
00
7B
01
7F
09
07
03
76
7E
78
75
7A
7B
79
02
10
78
00
04
0B
08
04
0A
04
6F
72
12
7B
71
06
04
11
7D
70
78
01
7A
7A
02
00
11
7F
76
11
04
77
08
10
72
0F
74
72
07
0D
10
06
0E
7C
04
72
74
0F
79
07
6E
03
0C
72
7E
7D
7A
06
07
7B
77
72
7E
09
7E
03
08
7D
06
09
74
77
0D
7F
02
0D
04
10
77
0F
70
7C
0E
10
09
01
7C
04
05
0E
74
71
11
73
7F
7B
7C
00
02
0A
03
71
06
11
7E
01
02
06
0E
0F
77
09
70
76
75
03
79
76
7B
01
03
01
07
7D
7E
05
73
7A
00
10
09
05
6F
05
10
78
04
74
08
03
7D
7A
0A
77
09
74
76
0D
0A
0B
02
7A
79
09
78
09
0B
72
08
7E
06
00
13
70
01
0A
7C
06
71
07
0D
6F
00
08
12
0A
06
7C
0B
02
0F
07
03
76
0E
07
09
12
74
00
7F
7A
75
0C
01
79
75
6D
11
79
0C
04
08
75
75
08
01
05
0D
0C
6F
79
06
0D
77
07
0F
03
12
13
7D
7A
0E
13
73
70
77
7B
7C
7B
72
00
0A
01
7A
05
7E
08
07
11
0D
0A
0B
7E
11
79
04
6F
74
0E
77
73
75
0C
10
0E
10
77
05
73
7F
74
7E
07
6E
00
0C
04
05
74
0A
03
0A
04
7C
6F
7E
78
0E
0B
06
7C
0E
08
7B
7A
0F
0C
00
0B
06
03
71
6F
0C
75
73
0F
79
79
0C
11
0D
6F
7A
00
0A
07
0F
7B
7C
7C
7D
10
12
74
0A
7C
78
06
07
78
05
78
0D
6F
0A
6F
7F
02
7D
76
04
7E
00
73
79
79
0B
11
74
06
7F
7F
77
7F
0E
7F
0F
06
07
05
75
79
74
7C
79
05
00
0F
06
0A
05
73
79
73
76
0C
6E
71
71
11
0A
10
05
05
7E
0B
79
0F
77
12
14
02
71
09
74
6F
7E
7C
07
0D
12
79
0E
0B
13
6F
75
0E
74
76
73
0E
02
75
04
00
7A
74
73
79
78
10
7F
05
07
0A
04
7F
6E
08
71
78
0A
77
0E
06
0C
0B
10
00
6F
76
08
74
79
77
11
03
05
11
02
0B
01
10
7A
78
7F
7C
0A
0B
7C
0E
06
06
0E
09
07
7C
05
05
76
6E
00
74
10
0F
71
74
12
0C
0A
70
78
73
74
7D
0F
00
0A
0F
7E
05
0E
74
74
00
06
10
00
06
0A
75
76
0C
7A
01
0F
05
0D
11
00
0A
74
00
07
79
0B
02
12
04
78
7E
0C
6E
09
7C
12
0F
01
12
75
74
00
0F
02
09
05
7B
71
7C
07
7A
04
76
6F
7B
72
73
08
7A
7D
76
16
7B
75
76
03
07
0E
08
77
73
7F
77
08
08
09
7E
13
00
04
7C
05
73
7E
77
7F
07
71
09
01
71
06
0F
0C
13
7D
04
0C
76
0E
77
7A
76
02
04
7E
7D
0E
7E
78
7C
70
0F
01
7E
71
7A
70
78
7D
09
10
07
0F
10
11
00
78
70
02
75
09
12
13
04
05
00
0A
0C
11
07
0F
75
00
09
0A
01
09
0D
7D
08
06
7A
10
0D
0F
07
70
7C
7A
12
13
04
75
01
7F
7B
0D
04
12
72
73
0F
05
77
7B
7A
7C
08
12
0C
70
7C
04
10
07
7C
7E
6F
70
7A
05
74
00
77
7D
7C
0C
00
0F
0B
7A
7A
03
02
0D
77
05
6F
03
0C
75
72
01
07
72
03
7D
0A
6F
7D
79
00
76
0A
05
07
72
70
78
04
79
01
0F
07
06
6F
7E
00
0C
7D
7B
7E
7E
71
71
13
7D
78
70
05
74
6F
00
76
05
6C
01
7D
0D
72
7C
7F
6C
6F
03
7C
0F
7B
01
79
12
7B
75
03
7E
0F
71
05
17
6D
71
75
05
72
0A
02
0C
70
15
70
04
6C
10
71
6F
7B
01
7A
0F
10
12
01
7E
6D
7D
11
0A
78
7B
78
77
05
11
09
0C
7A
13
79
0B
0C
76
14
02
77
7F
06
79
09
79
7B
07
0D
00
00
78
03
7E
75
6F
01
00
0F
70
71
78
00
76
05
07
0C
0E
7D
71
02
7F
0F
10
00
77
0F
0B
12
7E
01
02
74
06
06
78
0D
0F
05
78
07
72
73
78
7E
00
7F
7D
04
0A
6F
01
0C
7C
7B
72
0B
0D
6F
7A
08
7E
02
01
7D
10
02
0F
7A
06
7D
7E
06
7B
72
77
0A
06
6C
02
7F
00
73
01
6F
00
10
74
7F
0F
02
0B
02
0C
76
03
10
7B
75
0A
74
7B
70
71
6E
00
06
13
7F
0C
6E
68
0D
7F
05
12
74
72
03
07
7D
6E
6F
01
71
00
74
7C
76
6F
09
69
7D
7F
0A
04
0D
78
73
08
12
0A
06
12
11
04
70
0B
7D
02
75
0C
76
77
7B
05
6A
76
07
70
7B
7C
04
79
70
09
74
73
15
0E
06
05
79
6D
79
7F
6E
79
70
10
0A
0B
7B
0D
76
14
0D
06
17
05
7D
0B
0B
16
7E
02
04
01
7E
04
7F
79
01
0A
77
0C
08
0D
76
10
01
7F
7F
13
74
04
75
75
0A
76
7F
05
06
7B
0A
6F
76
0C
0B
0D
72
0F
71
79
6F
7D
09
73
07
05
02
0F
0F
09
6E
74
70
7F
02
7B
09
06
6E
0F
74
75
73
7D
03
78
73
7E
07
06
70
74
06
79
0D
79
16
08
76
79
00
02
05
78
09
04
76
0B
74
15
07
7D
0B
0F
7A
7F
7D
0A
0A
0A
71
05
75
78
79
0B
6E
02
00
0E
7A
04
79
00
78
05
01
0B
03
7A
79
11
00
77
73
7E
05
76
71
18
7B
10
10
05
7A
73
78
0F
74
74
79
7F
09
02
77
06
78
04
07
00
76
7F
76
72
7E
6D
7F
78
00
73
74
7E
05
75
70
0C
10
7D
79
7F
12
7C
74
74
0C
06
05
7C
09
0B
71
09
12
7F
75
11
05
09
0D
07
76
05
7D
7A
75
73
72
7A
7E
04
0D
7D
01
7A
0D
78
10
7C
79
7E
0E
71
7D
0C
10
05
75
7F
6F
72
0E
08
7D
73
72
15
6D
05
03
09
0B
05
0B
7E
6F
6F
76
01
7F
75
00
01
79
01
78
78
71
02
06
0D
75
09
03
71
07
07
05
10
71
11
04
01
06
02
73
0A
01
75
78
03
0A
10
07
7D
7C
0A
03
02
0E
0C
07
11
77
71
07
11
76
73
70
07
76
77
70
72
0A
72
09
0A
09
0C
75
09
7B
77
06
7D
7F
7E
0D
7E
07
03
00
0E
77
70
77
06
0C
77
00
77
72
05
70
0C
0C
06
79
7A
06
74
07
7E
08
0F
74
0A
00
73
7F
0A
7A
0F
73
02
76
01
78
6F
7F
6F
0A
04
11
02
02
6F
0B
72
7D
75
72
0A
10
0F
7E
0E
76
78
13
0A
14
7F
77
0F
01
7B
7F
75
7E
09
7C
76
12
06
6F
73
08
09
76
08
7B
0B
01
7F
02
75
01
78
7D
7C
76
11
0C
74
06
04
03
09
07
09
73
7E
71
6F
7B
01
0F
0E
79
0C
0B
08
10
7C
0B
71
7E
01
73
0D
07
70
72
76
7B
08
0D
09
0C
7F
77
7F
7E
74
08
7F
02
08
00
0E
09
04
75
09
11
71
06
01
6F
74
0E
07
78
79
0F
02
75
7B
0D
0D
06
0C
78
0C
7A
0F
6F
03
02
09
74
0E
12
75
6F
7F
7B
0E
05
72
7E
71
7F
7F
7F
77
09
75
71
74
0B
11
05
01
6D
06
11
72
79
7A
0A
7D
77
00
7A
12
09
78
74
10
7E
73
7C
74
08
0C
03
7B
00
7C
75
6B
08
00
04
6E
06
6C
13
06
7E
04
7E
6F
6B
7B
78
7F
0A
71
03
79
6F
74
71
06
02
05
09
0B
7D
16
09
72
12
6E
7A
72
0B
0E
76
0A
76
09
71
7B
7B
07
7E
77
06
0E
77
7C
71
7E
74
78
10
7C
7A
7F
04
0D
72
71
10
73
0F
7D
72
17
00
12
75
09
0B
7C
13
01
0A
74
73
09
71
09
7B
09
05
78
73
0C
77
7A
72
72
73
77
7B
76
09
6F
0F
77
00
08
05
01
09
79
73
70
72
10
05
09
01
05
7E
73
03
0D
7C
11
03
01
01
04
7E
09
74
09
7E
0C
11
0E
09
0C
0F
7C
71
0B
7C
08
76
73
06
08
02
01
07
0B
11
11
6F
02
70
7D
11
73
77
0E
7A
7B
7A
7D
04
07
07
71
09
03
0F
00
76
7A
70
73
0D
78
03
03
05
74
0C
14
78
05
7B
74
09
0C
7F
0B
12
16
7C
7C
0C
6A
04
6F
00
7C
0B
06
02
70
05
01
78
75
0A
05
10
78
6D
0B
0D
77
7D
69
6D
10
7E
7C
10
7F
70
73
6C
01
76
72
7A
7A
0D
71
7A
76
12
73
08
10
7C
0E
71
0B
08
75
06
7F
78
15
0C
09
0A
7E
0F
09
78
09
76
7F
0F
79
76
7B
06
08
6F
75
09
0A
10
09
0A
6F
08
79
11
0F
0D
01
03
05
04
13
0E
7E
10
09
05
7E
0F
0D
74
01
7D
08
6E
02
74
03
02
11
7C
72
09
0A
11
0E
07
7F
11
73
0A
08
05
06
11
0F
0A
05
0A
74
00
70
6E
06
0A
75
7E
05
6F
7C
04
0A
14
0B
0D
0E
7E
7D
03
78
0D
02
79
0E
20
73
0A
14
06
04
05
0B
7D
0D
72
0D
7A
11
12
17
78
79
7F
09
0B
6D
73
78
13
71
7C
0E
7F
0C
7A
76
19
09
0B
74
71
0E
0B
7B
05
7C
0F
06
0E
0F
08
7E
0C
06
02
7D
76
77
0C
06
0A
03
72
7D
78
7D
04
0F
70
74
06
79
13
06
11
09
7F
74
7B
09
7E
78
0A
6D
7A
74
7E
09
7E
02
7E
04
6F
08
7B
11
12
7A
06
12
08
75
75
03
79
0A
04
72
7D
6A
70
0C
7F
00
0B
76
7B
74
78
77
7A
00
10
0B
0E
0B
79
7D
6F
79
7E
7A
0F
7C
7E
78
78
74
76
0C
07
6E
12
7B
75
02
0D
78
0F
11
0D
77
77
11
71
71
0D
7A
04
75
71
71
75
12
76
79
0D
78
0F
79
78
12
04
0B
6E
00
0D
7B
75
13
7F
09
02
73
00
71
7C
0E
11
7E
73
13
7B
04
02
05
12
78
0A
0B
6E
73
0D
0A
16
70
76
77
14
0A
12
03
6F
01
0F
7E
7A
72
05
75
08
6B
08
06
71
0D
74
6E
0B
77
76
78
04
01
7E
10
77
13
02
7A
11
7B
74
79
71
70
11
0D
03
0D
11
01
7A
01
76
7C
7D
01
71
04
0B
04
6F
73
79
76
7A
0D
0C
7B
79
70
74
73
0F
77
7B
09
06
01
04
06
00
72
10
04
0F
02
74
7E
04
7B
11
74
76
0E
04
05
77
0C
03
04
74
04
11
13
10
71
73
7F
7E
10
01
0B
7B
04
0A
0C
07
05
7F
79
09
7A
0F
10
11
01
7F
0A
74
7F
0A
71
0F
0F
07
7D
11
7D
79
77
76
7C
0A
76
7F
0C
79
7D
74
05
70
04
7A
0F
0E
78
79
02
73
7F
0E
03
70
11
6F
12
0D
76
6F
78
0E
7A
76
05
72
74
74
0D
05
75
02
03
7C
00
06
7E
11
72
09
09
73
04
6F
78
77
7C
79
7B
0A
76
0E
79
78
01
7B
7D
08
7E
77
0B
0C
70
00
7B
0C
08
78
09
06
78
0A
09
6F
14
6F
0C
0C
77
06
76
09
7B
73
09
11
10
0A
0A
02
03
09
07
7D
10
02
07
7F
06
08
01
19
09
15
0A
02
05
0B
08
16
7B
77
07
79
08
74
10
03
74
6F
05
03
0C
0A
7A
0C
7A
01
70
6D
12
0B
06
00
74
11
10
02
7A
0C
15
00
0D
7C
17
09
7E
06
7E
76
10
6E
7D
6F
73
7B
7A
76
71
02
11
6D
0A
70
00
6D
79
70
7D
7D
7A
7B
0F
76
12
03
71
0B
03
07
7C
79
79
71
77
12
0C
0F
78
05
7C
07
72
0B
72
75
01
08
0D
0E
75
07
08
02
0F
78
79
0A
7A
0D
03
0E
05
76
06
7E
0B
72
78
7C
7B
74
76
0F
7A
76
7C
76
0F
74
0E
78
6F
7D
06
04
0C
75
11
70
04
72
7B
6E
09
0E
0B
77
78
00
0C
07
75
11
09
7D
0F
0D
76
76
75
0B
09
76
06
71
08
07
0B
12
7B
11
10
11
02
78
74
07
04
7A
75
7F
08
04
08
0A
0D
78
79
03
01
76
78
75
04
78
70
0D
79
78
72
11
06
03
78
11
0F
74
70
75
75
0F
12
7A
7B
0D
10
08
7C
01
0A
08
7E
0E
0B
01
78
78
08
0A
06
0E
05
09
07
71
06
7C
0B
09
71
0D
04
01
78
06
03
0E
07
00
75
08
74
05
00
01
0A
0D
06
11
01
74
70
77
01
79
6E
72
7B
71
07
78
0A
08
0E
74
01
7C
04
7E
0F
0F
0D
00
10
7C
7B
03
78
7E
77
09
70
71
7A
08
06
7C
0E
73
77
0E
0F
71
00
0D
0A
72
75
72
74
03
07
6F
05
06
7C
7A
0B
06
77
12
0A
0C
73
09
06
09
7D
07
10
7D
04
07
6F
79
7F
0F
11
0E
00
74
04
71
08
70
00
06
7D
12
7F
0E
01
06
75
7F
7B
02
7C
77
0E
70
73
7D
74
0C
0D
06
04
79
74
06
7E
6F
08
0A
7C
0F
06
03
72
0E
77
0B
6E
12
0B
04
75
78
00
70
10
07
75
74
0F
08
0C
7B
78
05
7F
0A
0A
0E
09
0F
0B
72
75
78
04
7D
70
02
0A
7C
78
73
0A
77
7F
7B
74
00
01
7B
7D
03
76
7A
0A
73
0F
0C
03
03
03
10
0E
01
7C
04
04
6F
7B
7F
7C
70
73
00
6E
0E
12
0A
02
79
09
79
07
0E
75
7E
7C
05
7B
04
70
08
6F
00
08
11
7E
73
0F
79
07
0B
11
71
02
09
79
0B
71
72
79
78
6F
0C
02
76
08
7B
01
7A
0F
05
0D
01
72
00
73
7D
00
79
7A
7A
79
11
79
0B
08
07
75
7F
6F
6E
05
05
0C
10
04
10
73
74
12
0A
11
07
05
01
78
76
71
72
09
77
72
04
7F
02
10
11
72
7C
0D
06
79
77
7A
7A
77
0F
04
00
72
0C
73
79
72
77
77
0A
03
06
7C
7C
7A
72
06
0A
10
7A
74
01
04
08
7E
7F
6E
09
0F
74
08
02
12
05
04
0C
10
77
0F
71
7C
0D
7A
6F
09
7D
08
00
0E
77
7B
72
70
7B
0F
79
7D
08
70
0D
05
0F
11
0D
0D
79
79
7A
11
0D
73
0F
02
09
10
7B
73
7E
06
04
05
76
05
0B
7C
03
11
0E
05
05
11
74
06
76
7C
6E
70
00
10
09
0F
7D
72
09
11
0C
6F
71
7E
03
7A
03
77
70
02
79
75
0C
01
7B
0F
07
01
0B
75
7E
03
7A
77
04
7B
70
0B
75
0F
0E
0F
70
09
0E
7D
79
0A
02
03
00
75
7A
09
08
7C
11
71
75
07
7D
72
02
02
77
7E
73
78
0B
77
0F
6E
05
7F
7E
04
75
7B
04
6F
72
72
0B
11
7F
7F
7E
11
72
70
03
0E
11
70
7E
6E
7C
77
6F
01
71
78
70
0B
0D
7A
6E
07
0B
7B
05
75
6E
73
00
70
02
76
72
7F
78
7B
75
6F
05
00
75
00
0E
6F
6E
11
7F
05
7F
08
01
0C
0B
7A
0D
09
01
09
79
7C
71
05
79
78
79
78
0C
07
00
00
79
78
03
79
7A
0C
6F
11
11
74
00
72
06
76
7D
77
00
7C
10
7E
75
6F
71
0C
7A
02
08
7C
0A
10
7A
76
79
0E
07
6E
6E
78
72
02
7C
09
10
76
7A
06
0D
7F
70
10
07
03
74
01
06
0C
74
7B
11
05
06
00
0A
71
7A
0A
6E
03
0A
06
7F
7D
7A
7E
7C
79
08
04
73
07
07
01
78
77
76
09
79
0B
70
0E
10
03
0C
73
77
0B
7B
7E
71
78
05
07
02
78
11
7E
05
75
7C
11
11
79
02
0D
70
6F
0E
75
70
00
76
76
70
77
6F
71
7D
08
06
0E
79
01
6F
7B
09
71
72
71
0F
0A
0A
10
70
03
10
78
75
77
7C
7C
06
08
07
76
79
74
0E
09
0C
09
0C
74
0B
7C
0B
12
01
07
77
07
7B
73
74
04
7C
7D
00
7B
6E
71
11
0F
12
76
7F
7C
76
03
7C
70
71
00
02
76
0A
01
74
70
70
73
09
77
0C
7A
71
76
0B
76
12
0C
7B
79
12
05
05
7D
7D
77
71
73
05
78
7F
75
0B
0D
11
0C
0C
08
03
0D
76
70
01
70
07
0F
7C
06
04
6F
05
7F
0B
0D
71
7C
07
0B
12
7A
75
12
7C
0C
0A
7B
00
73
75
7B
02
79
11
03
75
01
07
0A
7A
7C
75
7A
75
06
7C
12
11
0E
02
09
7E
73
7D
7C
79
0D
6E
70
03
74
78
7E
7B
0F
7D
0A
07
7A
0E
78
01
7B
76
7D
09
7B
0C
79
11
05
73
7F
70
71
0E
0B
73
07
0B
7A
6F
0C
73
03
78
78
74
75
01
07
7B
70
7A
0A
0A
70
75
7A
05
70
7B
7C
0F
7A
10
7C
70
7D
0E
04
03
08
73
0E
09
05
02
7D
00
07
70
78
05
02
7F
71
77
78
11
0F
77
06
78
7D
00
76
71
12
71
6E
73
78
6F
77
0F
71
7F
7D
77
71
02
0D
6F
02
7E
76
7E
01
6E
7B
7E
03
73
77
72
7D
03
10
08
7B
7C
03
09
10
05
0A
00
7E
08
00
0B
7E
0F
75
09
09
73
06
7A
74
7B
09
0D
0E
7C
7A
7C
0D
06
71
7B
7F
03
6F
0E
02
04
75
71
75
70
77
00
02
08
71
78
7B
00
7D
01
79
78
72
71
0C
72
7C
10
02
7F
71
0A
09
02
0E
7C
6D
71
05
07
7C
00
0D
04
11
0A
0E
7C
0D
0E
04
73
14
7D
08
71
01
06
73
76
06
6F
01
70
0D
6E
7D
79
7F
75
7E
0A
01
06
14
0F
78
70
08
75
0E
06
01
7B
77
10
07
10
0E
7E
7C
6D
07
04
73
0D
7A
06
7E
70
73
7D
79
03
6E
12
0E
7E
0C
09
10
0D
72
77
06
07
08
71
0E
08
76
7C
76
7E
7F
00
05
72
7E
02
7D
6F
77
71
03
77
78
04
09
7C
72
01
0C
71
7E
77
0D
0A
79
03
10
0C
7A
78
06
03
09
73
10
7F
00
0A
6E
0C
77
70
10
72
0F
0A
08
0E
74
05
0A
0C
09
0B
77
0D
6F
05
00
78
7D
06
0A
79
79
01
03
74
08
7E
72
01
6F
00
0E
0E
75
0F
08
6D
7D
73
07
78
0E
7D
7A
06
0C
72
7A
13
01
0A
05
7D
7D
75
78
0B
08
7F
6F
7A
74
04
09
0B
14
72
0F
07
0C
6F
0D
0C
05
7D
04
79
08
76
72
7D
02
73
77
73
7E
76
13
6D
01
72
05
00
09
78
03
6D
12
7C
09
0C
0F
73
78
77
77
7B
10
77
03
14
0F
7A
0A
15
0E
78
7B
0A
0A
71
7B
00
6E
72
74
03
0E
10
76
7C
72
78
7E
01
12
71
79
78
79
05
71
7F
75
77
12
7E
6F
0C
75
76
0B
00
0A
7D
71
10
12
7E
07
7D
6D
7E
76
02
0D
09
0C
0C
00
72
02
6C
7B
77
76
11
77
0A
01
00
7B
7B
06
10
71
02
09
11
7B
7B
77
75
01
78
72
74
72
02
10
0B
09
09
71
03
02
0A
79
0D
74
7A
05
0D
72
7C
7D
71
76
72
7F
70
07
0F
73
12
7B
6F
12
01
0E
77
0B
00
00
74
7D
70
02
79
78
74
7D
7D
04
09
7E
10
09
02
0E
75
76
79
7E
77
11
72
02
0C
16
6F
11
6E
7F
07
0D
75
73
79
12
11
6F
6D
0E
0D
7B
0B
7F
06
17
09
7F
6B
7F
00
6B
7F
08
74
16
78
0F
71
0C
0D
04
0D
7C
7F
11
76
09
75
07
0F
71
08
78
07
79
09
17
7E
72
08
06
6E
7D
12
78
0C
0F
7A
76
03
08
0A
7E
0C
0F
70
7F
79
00
6E
05
0E
79
15
6E
07
11
0A
08
06
78
7C
70
0F
04
08
05
10
0A
0B
6E
10
04
75
0E
09
7C
0E
0D
08
74
75
02
79
6F
78
11
6B
75
6F
06
03
00
15
00
73
14
11
01
7E
7B
7A
16
04
13
01
74
79
00
07
70
7C
70
70
72
01
0B
00
73
02
08
76
10
0C
75
0B
70
12
7E
78
04
0F
06
74
7B
04
71
0C
74
02
0B
10
7B
05
15
02
72
7A
04
01
06
01
01
0B
79
64
11
7F
71
78
73
78
01
6F
76
7D
6E
6F
09
0D
07
0B
0D
0C
00
00
7A
06
78
78
0F
07
6D
0A
7B
0A
77
0A
04
7D
70
6E
00
04
7E
01
09
72
01
03
0A
72
07
0D
01
03
79
0C
6E
72
10
7D
7F
09
13
74
02
70
04
7B
78
11
09
7D
08
09
0F
05
76
09
11
09
02
71
16
7F
0A
02
09
76
75
71
14
77
6B
70
07
03
11
72
79
76
07
0C
00
74
07
04
76
7C
0E
76
10
09
7C
7E
09
72
78
76
01
13
03
03
02
10
0A
70
76
77
07
78
0F
06
7B
79
7C
0E
05
0E
0E
72
77
7C
76
75
01
78
7C
72
11
70
7D
72
03
71
05
77
07
06
0B
07
04
7D
01
04
12
0B
00
7C
79
11
0D
03
7F
06
05
07
04
0F
6F
11
74
6E
74
02
0C
71
01
07
11
0D
76
73
70
7A
72
06
79
0C
7B
7E
75
77
7D
11
06
71
0B
06
12
10
77
7A
7D
02
72
75
12
7B
09
04
79
7F
04
7F
6E
75
12
08
01
7C
78
07
03
03
7B
7A
76
73
6F
76
12
11
0C
09
03
05
10
0C
6C
01
0E
71
05
6F
15
12
73
79
72
78
7C
72
0B
79
07
6E
0A
78
08
74
0E
0B
10
05
01
71
0C
03
78
02
7D
02
0E
02
75
70
76
75
71
72
78
01
05
72
09
79
09
79
09
6E
72
01
01
7C
0A
72
09
7F
70
73
0A
0E
0E
06
05
01
0B
11
76
72
7D
0D
75
06
12
71
10
06
00
07
07
0E
11
05
0A
0E
71
7C
73
07
7A
7F
7D
06
03
71
7D
07
02
79
0B
78
03
02
73
03
0F
0F
00
7B
10
6F
04
05
12
0B
7D
07
7E
12
77
7F
6E
01
76
0C
77
76
11
0E
05
04
7E
06
6F
73
70
76
01
0D
78
77
73
0C
7A
70
73
0C
06
79
01
76
79
73
7F
6F
6E
04
7F
08
03
7A
11
0F
71
7C
7B
7A
07
05
70
0F
0C
02
0D
7E
76
79
75
7C
08
78
09
7E
72
03
00
0B
7A
06
78
7E
12
79
06
7F
12
0C
6D
0C
13
07
7B
70
01
0F
11
0B
0A
6D
06
01
09
79
0A
0F
78
6B
01
7E
7B
03
6E
7C
0A
74
00
07
12
0E
07
10
70
0E
03
0A
79
03
0E
0D
0D
03
7F
08
7C
7F
0D
0F
09
70
70
06
70
11
6D
79
7E
7E
0F
11
01
03
73
03
6F
02
78
7C
78
0A
7E
05
75
13
72
03
00
05
78
12
71
12
77
00
7B
76
77
78
0D
11
74
7B
03
11
70
7C
02
04
10
7F
06
76
0A
74
0D
70
78
00
08
0A
05
7F
0D
7B
7C
77
78
04
09
79
03
75
74
02
0E
78
06
7D
05
71
0A
0D
7F
00
79
0C
75
74
0C
04
75
79
7B
08
07
03
75
03
7C
0C
05
11
08
7A
72
77
7B
6D
7D
78
73
12
70
09
0B
7F
02
03
7F
0D
0A
70
01
0E
00
01
05
0F
7D
74
77
04
7F
79
6E
0B
0B
76
11
71
7B
7A
01
09
71
0F
78
0B
7E
05
0B
74
00
78
76
11
05
7A
7A
75
04
76
11
7C
76
78
06
6D
0C
7D
03
07
0B
7B
10
0B
10
70
01
0B
71
04
77
0F
7A
73
7C
74
0F
7A
7C
07
75
73
0A
6D
7B
00
11
00
05
06
6E
71
77
73
07
6C
08
6F
7B
00
6E
73
7F
04
6F
70
72
0D
75
75
6D
7E
05
6F
0D
09
03
02
7B
7A
0B
6E
02
0D
7D
03
07
6F
0C
11
78
77
76
07
78
7A
0D
71
7F
7A
7B
0C
71
01
6F
6F
7E
11
0D
06
05
0D
0D
78
7A
05
70
0C
10
04
0E
08
76
79
77
02
7D
7A
76
79
07
05
0C
0B
12
7B
7E
0B
0D
0D
72
7E
7A
12
09
0F
0F
08
77
05
01
0C
73
0A
11
7E
79
6F
0C
74
0C
01
77
7A
04
76
76
7C
0A
71
10
75
7F
77
03
06
76
00
73
0C
72
11
02
7A
00
13
0B
7E
7C
7A
7A
72
0C
0A
74
0A
74
75
7B
71
76
72
74
06
73
73
70
6F
08
06
12
79
05
05
7E
0A
11
6D
11
10
0B
71
0B
04
00
10
76
0B
6E
00
7B
0D
07
06
00
0E
71
0C
03
72
00
71
74
0C
10
79
0D
06
7F
76
0C
07
02
71
0D
7C
06
77
73
0B
6D
7A
6F
77
0C
11
6F
7F
78
71
0B
0D
03
0B
7A
75
10
7B
02
0E
7A
07
01
02
7C
11
77
05
79
7E
10
08
11
0E
0E
09
75
04
0E
7D
0C
0A
79
0C
71
08
78
76
7D
0D
07
7B
10
74
0A
09
7E
7D
13
12
7A
71
07
01
7F
03
7B
75
6E
73
7C
6E
7D
08
02
7A
73
77
7B
78
0D
71
7E
79
09
79
7E
0E
02
0A
10
0C
03
0B
12
10
0B
0C
00
05
7D
05
0E
7C
13
09
75
7B
09
09
0B
7D
0A
70
7F
7C
11
70
7D
05
05
7C
0C
09
72
74
78
08
74
0F
07
04
04
11
06
0B
73
11
79
73
7F
05
10
72
04
0F
16
0F
6B
77
76
74
12
75
72
7C
7B
11
10
0B
11
73
07
77
0F
0B
78
10
6F
0D
0E
7E
0D
73
06
75
0C
0D
6E
76
75
13
72
03
03
01
07
06
10
70
76
72
6F
7D
07
0C
73
72
77
0C
05
04
00
7F
03
12
06
6E
6F
7B
10
06
10
01
72
08
72
12
77
7B
77
7D
0D
7D
06
75
09
0F
11
0B
7A
74
7E
75
72
76
0C
01
0D
0C
74
0B
08
6F
7E
71
04
7F
02
0A
79
7C
6C
09
6C
72
0C
0C
01
7A
02
0B
7D
7F
7B
77
79
7B
09
77
70
0F
05
03
74
72
77
01
09
79
06
0B
77
02
09
11
6A
12
77
78
73
70
77
10
05
0D
7D
0C
01
03
0D
0A
75
0F
78
00
00
08
7F
00
6D
02
6B
09
0B
7E
7A
03
71
0B
0C
71
76
00
73
77
71
7D
0F
06
0E
12
79
7F
72
7E
01
71
0B
0D
03
0D
07
05
78
04
0A
72
10
6F
72
6C
7A
06
0C
79
74
05
77
7A
0B
0B
7C
73
6F
04
7A
06
7D
7D
05
15
6F
76
77
08
02
0D
79
0B
06
7C
01
0F
06
7D
79
14
0D
08
7B
0A
71
7C
04
7F
75
09
00
7C
79
7E
00
13
04
09
0C
78
03
7A
70
79
7F
75
74
70
75
08
08
73
76
0D
78
0A
10
71
11
72
7D
7B
0A
04
03
73
00
78
70
7F
0D
00
7C
77
07
76
09
0D
74
7C
76
0F
73
0D
77
72
70
0E
74
7A
0A
72
00
07
7A
00
0C
07
7F
05
77
0D
6F
08
0B
7A
11
72
73
7F
01
09
7A
73
7B
7D
71
0F
7F
6F
78
07
00
74
09
09
7A
7C
70
70
03
72
11
7E
76
08
11
7E
13
00
78
75
0D
79
10
6F
0B
0E
0A
12
7A
06
03
75
0E
0F
0D
13
6F
6F
09
6F
77
11
6F
7C
07
0D
0B
7A
7D
0C
02
02
11
09
0A
76
79
76
0D
7B
77
10
6F
02
7A
70
02
02
10
6F
03
0E
7F
75
05
11
71
71
12
02
72
12
79
0A
0A
0C
0E
00
7B
6F
7A
7B
07
04
7C
0C
73
0E
7B
73
71
02
04
08
06
7F
0D
79
7B
11
71
10
78
12
08
02
7B
07
0E
0F
7A
76
0A
7C
7E
03
78
77
7E
0B
74
7B
0E
09
04
75
03
12
77
05
0D
7A
09
05
71
0A
01
0A
73
70
78
73
01
04
08
09
78
0B
02
06
12
7F
6E
00
09
0D
06
7D
7D
11
72
7B
77
0D
0A
08
08
79
75
74
00
04
75
11
7E
04
7E
09
03
7F
7B
7A
75
7C
7F
76
07
0F
02
07
07
7C
04
05
06
12
08
0C
09
00
05
7A
08
7C
77
09
77
7B
0F
0A
79
12
74
73
09
0C
07
12
73
7A
10
78
73
7B
7A
04
76
0C
00
10
7D
0C
06
0A
0F
05
08
11
77
6E
71
76
7D
77
02
00
0F
00
0C
0A
00
77
00
7A
04
0D
7E
74
06
08
08
79
0B
06
7F
73
7F
7D
7B
12
75
72
02
75
04
7F
7F
72
0C
0A
76
78
77
6E
10
78
10
6F
7C
74
7F
72
79
7F
7C
7F
09
73
10
07
05
70
7F
76
76
7C
76
72
0F
7A
7C
09
05
6E
0A
7B
06
7F
08
08
7D
02
79
0B
7E
11
04
70
72
01
0E
0C
10
6E
6E
7A
6F
07
72
03
15
02
0B
09
0F
0E
7B
7D
7D
06
07
75
77
02
76
00
7D
05
12
06
7B
7F
7A
0D
7A
7D
7A
0C
7C
0B
79
07
03
74
0F
6F
74
09
07
03
03
71
0F
7C
71
72
6E
0C
08
00
15
0C
10
01
7A
05
76
0C
7F
7F
7F
79
7E
12
11
07
7A
73
7B
79
09
79
14
03
6E
7D
7B
07
0C
6E
11
03
75
76
0B
02
05
71
72
00
7D
0D
09
03
0B
7A
7A
0D
0A
71
05
0E
75
69
79
70
75
72
13
06
7D
07
7C
74
0E
79
08
7F
79
71
71
00
7C
01
07
6F
6F
7E
0B
03
05
04
0F
77
7A
05
00
0F
04
01
00
03
71
01
73
04
07
78
05
75
11
7A
06
10
7A
0C
10
7B
7E
06
05
7D
76
7B
79
79
08
76
00
0A
0F
6C
0D
05
02
0E
74
0B
08
76
07
03
7D
01
6F
77
07
6D
02
72
75
05
7E
0F
10
05
0F
10
7E
6F
75
00
01
73
03
10
03
70
77
0F
0D
04
02
7A
7C
75
78
10
0D
7B
70
76
01
12
75
05
77
7E
7A
6F
7C
72
09
72
0F
15
0E
79
70
76
0D
0C
02
07
77
7F
07
6E
03
0D
7F
6D
7F
71
79
72
0C
01
0F
0B
16
0D
77
04
01
7A
73
77
7F
73
7D
71
0C
06
7E
77
7C
72
6F
0A
0D
70
05
7C
06
74
7C
03
7B
7B
08
7C
79
7A
0E
0B
71
7F
7E
04
0A
67
6E
0D
6F
6F
73
00
0A
0E
73
72
6F
11
7C
7B
73
10
6F
73
78
0E
0C
0F
74
0B
03
07
72
03
0F
03
04
08
10
73
12
09
07
0E
10
7D
6E
7A
01
09
03
7A
7C
06
7C
04
75
74
03
07
08
08
0D
11
0E
05
10
7C
08
10
71
0C
72
6E
09
07
78
00
0B
0C
0D
71
11
06
71
7F
05
72
04
09
04
01
71
7D
70
02
00
0B
08
10
11
0C
00
03
00
0A
79
03
6D
0C
04
72
6C
77
00
09
0F
09
10
6F
06
01
75
10
74
0E
73
0A
77
0E
77
77
76
78
05
72
06
73
79
0E
0D
12
77
78
7A
76
03
07
7E
7B
7E
06
78
0E
7F
77
02
09
0D
02
7B
76
04
03
73
0B
7F
73
79
73
04
10
6E
00
6E
03
7F
71
01
7A
6F
76
04
04
75
0C
10
0E
72
79
13
71
10
07
0F
78
12
79
0A
07
0F
74
77
06
79
7B
6F
00
09
77
78
02
76
11
76
10
76
78
09
70
09
0F
07
6F
10
70
0D
09
0C
00
01
02
06
76
10
79
09
72
07
05
70
76
09
05
0C
10
6F
0D
6C
13
0F
08
07
17
77
6E
00
74
11
12
6B
73
01
10
09
7B
70
09
70
10
7C
7E
0B
71
0C
78
0C
7B
7B
6F
79
75
0C
07
79
7D
7C
0D
0B
06
6B
16
0C
78
7C
06
10
7A
6B
73
0C
01
75
00
00
79
78
76
0B
76
0C
7F
70
72
73
07
02
7C
0A
10
7D
0F
07
0C
05
07
09
74
7C
7E
0E
76
00
78
08
73
10
0F
7C
02
70
08
79
13
0F
7E
0E
02
7A
13
07
6F
09
0A
09
02
0C
71
71
79
06
73
0F
0B
7E
06
73
76
72
04
78
71
07
70
0B
78
72
07
7F
01
07
7A
74
0D
7A
07
6E
7E
0A
04
0C
05
0D
10
05
0D
73
00
0B
02
12
06
73
06
02
12
0C
04
01
0D
05
7B
73
07
0F
02
0E
0D
03
11
11
77
11
00
0F
71
75
09
6D
07
0B
79
71
06
7D
6F
72
7B
7C
70
6F
14
6F
0B
77
79
7D
6E
0E
77
09
0D
0E
04
0B
00
12
00
0E
75
02
08
02
79
00
0E
00
71
08
04
01
76
7A
77
7A
0D
02
7E
07
13
10
78
7D
09
14
7B
08
01
7A
7C
05
0F
0A
7D
14
12
7C
01
04
07
7C
70
74
7D
10
6F
05
04
79
0A
71
7F
6F
7B
16
10
07
7B
7A
7A
77
0A
7E
73
0F
0B
09
76
08
7C
7C
07
08
75
7B
75
73
02
6E
73
7C
11
73
71
08
79
05
09
01
0F
78
05
74
02
12
0A
77
6F
00
70
09
7A
0B
75
77
00
79
11
10
7F
75
75
76
12
08
07
02
0B
00
02
11
02
0E
78
04
01
0E
0E
0D
76
73
7E
79
07
7C
79
6E
7E
09
74
78
73
74
06
08
7B
0A
04
0B
74
08
03
03
04
7B
12
11
79
06
7D
10
04
02
06
06
7D
71
72
0E
72
78
0E
03
04
11
03
03
15
0E
7B
7C
71
02
6E
01
03
09
00
06
0A
05
08
7C
72
7F
0F
78
08
01
08
76
07
76
0A
09
75
75
06
72
0A
0D
76
04
79
75
76
0F
7F
03
03
12
6F
0A
08
06
77
6D
0C
72
01
7C
0A
72
01
7D
0A
78
0E
08
78
0F
10
7E
0E
01
74
74
0F
08
13
7B
08
10
7E
14
0A
7E
0A
01
08
7B
77
0F
03
0A
10
77
06
0F
14
7C
0A
74
03
08
76
7F
00
72
79
03
11
06
07
02
71
7E
77
75
10
0E
73
13
77
14
72
7F
0C
70
12
7D
70
71
07
06
08
0C
0C
71
7F
08
72
75
07
7B
02
10
0A
75
77
0A
04
08
0B
70
75
0F
05
7A
7A
04
6E
0F
11
04
01
12
76
72
7F
0F
0B
01
07
77
7C
7C
72
75
07
09
7F
01
7E
0D
12
7B
75
78
0D
03
75
04
01
74
06
0A
0E
05
72
03
0C
7D
0D
74
04
7F
79
11
6E
77
76
0A
75
75
09
13
76
0B
11
7D
07
7D
0D
0D
6F
0E
10
04
74
12
72
72
11
0D
08
76
04
75
08
0B
7F
78
72
7A
06
7B
0A
75
71
0C
03
74
04
04
04
08
7A
0A
10
7A
11
7D
0B
79
04
05
12
12
6F
78
7B
76
7F
10
04
7E
06
6F
71
07
04
6E
77
0C
02
79
0F
04
0C
7F
6F
7D
76
02
01
07
76
71
01
07
04
03
09
11
07
12
77
74
7B
7C
11
72
79
7C
6F
01
07
72
76
72
01
7E
7A
0C
06
74
14
11
11
75
0C
72
76
6E
08
09
0F
7D
11
09
7A
06
7C
77
78
01
7B
10
79
77
7C
73
77
75
04
10
72
70
06
0B
03
0E
06
6E
07
7E
07
10
7B
76
73
7C
7C
7F
71
03
00
75
02
00
6F
6F
75
78
74
0E
03
71
6E
13
0D
03
12
04
11
77
77
12
79
76
01
75
76
77
02
03
05
7F
01
0C
76
71
6E
10
02
00
06
01
0C
02
74
10
0E
78
76
0D
12
0E
79
01
7C
75
0A
74
79
71
02
0C
70
72
02
6D
76
7F
71
7A
0C
75
08
09
79
75
77
02
01
76
12
7A
07
06
7A
04
7B
04
0E
00
06
7E
11
7D
0B
0A
02
00
71
75
00
12
0A
70
79
7F
08
0B
78
74
75
72
0B
74
04
78
0E
75
77
77
74
7D
79
0C
04
17
71
16
06
7A
71
6D
77
11
7B
08
7C
07
72
6F
00
12
0E
02
7D
77
79
77
01
78
7A
73
0B
77
10
0A
03
04
11
11
0C
01
00
74
01
7F
01
7B
13
13
07
04
09
75
0F
0B
01
0D
09
7A
6E
78
00
07
7A
02
08
75
0F
7D
7C
0A
11
72
74
78
04
04
6F
71
75
0B
7D
77
79
76
08
12
7E
01
79
15
74
0C
74
76
0A
0D
74
7D
6F
79
01
6B
76
7E
71
7C
0D
72
70
0B
7E
71
08
72
02
78
72
15
7A
74
02
79
7C
70
0A
04
02
0C
12
70
11
03
75
02
0B
75
79
10
0C
10
75
73
7E
6D
08
0F
71
0B
7B
71
0B
75
6D
74
06
07
12
78
00
7C
02
06
7B
72
7E
0B
0B
0B
10
77
01
70
7D
0D
11
75
76
78
0D
0B
7D
0E
12
77
0A
08
79
77
6E
75
7D
7B
0A
7D
74
0A
10
79
0B
02
06
72
79
10
01
7B
0F
7C
76
03
77
16
7A
72
7A
7E
0B
06
67
07
79
7C
77
76
6E
79
00
7E
76
04
03
0A
04
0D
0D
02
7E
00
0F
79
7A
77
6F
7D
75
76
11
75
7C
75
79
74
05
78
70
76
01
02
0B
0A
75
79
10
79
0A
0B
0D
70
70
05
10
7A
0F
7E
12
0C
07
77
75
01
0A
74
11
00
7B
70
06
7D
7F
6D
0F
79
7E
77
76
77
71
11
0E
6F
6F
12
0A
08
76
71
09
0B
01
0A
6E
7F
0C
0B
0B
0D
79
07
07
05
76
06
0C
08
10
01
78
0D
7F
00
16
0C
11
7C
75
0B
7D
00
04
7A
72
76
7B
7C
02
02
6C
0B
00
7C
01
0E
73
6B
01
0D
06
10
03
08
00
7B
78
7C
09
02
0B
11
76
07
0F
09
01
76
7A
05
78
0E
6A
07
75
08
0C
79
0A
0F
72
0A
7C
7C
0E
6A
70
7F
08
0E
72
07
10
7A
0E
74
0E
75
08
78
0D
0F
08
04
7E
79
6E
00
07
78
0B
7E
71
7C
6F
0A
7A
79
08
02
0D
03
0C
0C
07
02
0E
04
09
7C
12
79
76
7B
0A
0F
6E
0E
78
08
76
00
00
7A
08
0A
08
7B
0E
78
12
0E
01
05
7F
0F
78
00
7B
11
09
79
00
7F
7B
74
10
6E
7A
06
07
03
05
06
74
77
11
01
0F
6C
05
71
0F
09
70
0F
03
04
00
10
75
07
0B
00
10
6E
0A
04
7C
76
79
77
72
70
05
07
7F
07
07
7F
74
76
04
72
04
73
04
7E
00
7B
6E
7F
0C
6E
7F
0F
13
72
7C
7D
01
08
04
04
6F
69
7B
7B
08
0B
77
77
7A
7E
0A
77
73
13
05
03
11
03
0A
11
12
6C
7B
00
0A
6F
05
7E
0B
77
00
71
76
7B
77
0B
01
09
0B
7C
71
7D
7D
0D
78
76
7B
0E
7F
09
78
0C
70
73
05
10
6F
6F
7D
12
79
7E
7F
0A
11
0C
78
08
0F
00
02
05
7E
7A
04
7C
0C
72
7A
79
6F
05
7B
0E
10
07
0F
7A
01
11
0D
79
06
77
75
09
7B
7B
7C
77
72
0C
7A
77
7B
7A
08
12
7E
03
77
0A
0D
09
03
7C
02
0A
12
7C
13
13
01
76
08
0F
09
76
75
71
00
75
75
74
0C
08
7A
78
76
7E
7B
01
79
07
06
0D
76
02
79
74
05
79
0D
13
04
0C
12
0A
13
12
7C
04
0C
77
7D
0C
76
08
03
08
72
76
71
7E
79
06
10
76
06
74
05
70
04
7D
0F
6F
6D
7E
70
7A
00
05
12
01
05
0D
71
10
7F
7B
77
01
76
0D
74
79
72
74
10
0D
06
10
05
0B
76
74
05
09
7E
78
7F
7C
6D
0D
74
72
7C
76
6F
79
78
72
11
13
0E
08
70
01
08
7C
0C
0C
0F
10
7C
79
0E
0F
7F
7F
0A
79
74
72
6C
74
79
0D
11
10
0B
74
7D
7E
08
09
72
06
07
7B
7A
10
08
0A
71
01
71
75
77
04
0F
70
0E
08
70
73
00
09
7C
7C
6F
0E
03
77
7D
11
6F
0C
6E
0A
72
10
71
70
70
0E
6F
05
6E
79
7F
09
0A
7C
05
72
08
6E
6B
75
74
10
02
03
07
7F
0B
06
7D
0A
00
7A
06
76
71
7D
0F
72
73
7E
04
05
0B
7C
74
0A
0A
07
05
7A
6C
0F
76
03
78
02
0B
0A
10
71
03
14
73
73
76
07
70
0C
0B
79
0F
76
06
0E
11
72
05
09
0B
0A
03
09
0C
04
7C
7A
09
73
7E
0B
72
79
01
7D
04
00
02
02
76
07
05
75
73
0A
77
04
74
11
15
72
6F
15
7F
72
74
6E
7A
06
09
03
74
05
70
09
09
08
02
75
70
09
7F
07
12
08
18
04
7D
7B
09
10
7E
08
7D
72
06
10
75
09
00
79
0D
73
0E
15
7B
77
03
07
01
78
0D
7B
74
7C
79
77
7B
11
07
74
0B
73
0F
74
04
73
0F
01
07
72
7A
7E
0E
0F
12
7A
6F
74
6F
08
72
7E
09
7B
0B
08
78
06
02
7A
7C
7C
71
79
77
08
06
02
79
78
7E
09
7F
73
75
0D
0C
04
6A
74
0C
7A
0F
77
0B
09
6F
73
77
0A
7A
05
13
0F
70
04
75
75
07
0E
09
04
77
75
69
6D
77
7C
0F
08
05
6D
05
07
0A
03
0D
11
01
01
7C
7E
0D
6E
03
02
0C
7C
07
6F
76
09
0D
6A
15
72
11
09
7B
13
05
70
7E
00
08
07
00
02
72
75
0B
04
0D
0E
08
10
6F
72
0C
07
6A
03
72
7A
77
69
7F
0A
03
70
72
72
7D
7D
76
7D
0B
14
04
13
6E
77
7E
08
74
02
01
11
0B
72
7F
7C
71
0E
74
73
01
09
7D
71
0A
10
05
71
7B
7E
75
13
02
03
02
74
05
0A
08
06
0B
71
08
08
73
6F
0F
7D
09
0D
7D
12
0E
7A
07
7D
11
71
08
7A
0C
09
70
6F
06
05
11
01
6F
73
06
02
6F
6E
73
02
01
7B
72
79
7B
01
10
0C
6F
05
08
02
09
79
72
73
7D
01
08
06
79
6E
7A
7D
76
18
0D
07
06
03
10
72
0E
77
0F
74
02
77
7B
12
73
79
0F
74
0D
0E
7B
0A
02
01
0B
0B
04
00
70
76
07
0F
00
7A
70
01
05
6A
06
15
7E
00
6D
05
19
0D
0A
02
0D
7A
79
14
02
0A
06
10
0E
15
0F
0A
74
14
05
74
71
72
05
10
7D
01
0B
72
0C
12
7C
75
11
02
02
0B
6B
11
66
11
78
0D
00
16
7C
79
01
72
7C
06
7E
7C
0F
11
0C
0B
6B
09
0E
7B
7C
79
05
74
74
0E
08
0C
07
12
72
6F
06
7F
73
79
7F
07
6D
04
73
07
76
74
09
72
7D
7F
71
7D
73
0E
6F
0C
0F
0F
7D
05
77
02
6F
05
11
74
11
05
6E
07
10
78
70
74
0F
08
7A
09
7F
00
03
75
02
7F
0D
74
76
7F
70
79
7E
7B
77
78
09
00
02
00
10
70
03
08
70
74
6E
0D
08
7C
02
6F
77
09
72
06
11
73
74
6D
0C
08
72
0D
7C
74
05
7E
10
79
16
09
7C
7D
7D
73
10
08
09
05
73
04
70
78
76
06
00
7E
72
02
09
0B
0B
7F
09
71
70
10
03
78
00
10
01
7E
70
7E
79
79
0E
02
73
08
76
7B
01
05
7F
07
07
07
79
0B
07
10
0A
09
0C
0B
73
0F
0F
78
12
09
17
02
08
17
71
04
75
06
0E
05
72
10
02
6D
08
02
00
07
70
75
78
0C
0B
11
09
7C
06
72
07
05
08
0F
7C
12
06
05
73
75
71
76
71
0B
0F
71
00
0E
7C
0C
0A
11
08
0C
0D
0B
0B
0E
0B
03
10
76
0B
0A
76
12
10
7D
7A
6F
0E
08
6F
7B
76
0D
02
74
01
0B
77
05
71
72
0B
77
09
00
00
72
01
06
7B
7C
05
0D
77
7C
01
71
10
0E
11
77
6E
77
0D
73
70
0C
0C
00
78
02
01
71
09
10
0C
70
79
7A
75
13
7B
6D
08
7B
7A
05
7B
7B
79
7B
0D
08
7A
05
0F
7A
6D
79
72
00
03
76
06
73
7A
7A
01
04
7A
0E
01
7A
09
7F
7E
10
1A
73
17
7A
77
0A
7D
03
7E
72
06
74
04
77
06
02
0E
0F
7A
07
75
74
10
7E
09
7D
0B
04
7E
71
7C
13
75
72
76
0C
75
70
05
7B
0C
0E
0B
73
72
70
01
70
72
09
76
0F
77
0D
7B
71
77
78
71
74
7F
0F
12
7D
03
02
6F
07
02
0E
0C
7C
06
7C
0B
0F
02
01
7B
02
79
6F
11
06
02
0A
07
06
00
10
0F
01
75
0B
03
0E
12
07
74
07
70
0F
75
78
09
09
7B
79
72
11
0A
04
76
7B
7E
01
75
09
78
04
03
10
0B
04
05
0C
03
0F
0D
09
09
04
03
7B
7D
0C
73
75
74
01
71
7B
12
08
00
75
08
78
7A
0E
0E
0E
70
09
13
0E
75
7E
7B
0F
12
7F
0C
72
71
0E
0C
7E
09
0C
7D
78
05
7D
71
7C
01
73
7D
07
07
74
73
07
76
04
73
7F
7E
0D
7A
15
0D
71
74
7E
7F
07
7A
72
02
78
6F
77
09
7C
0B
04
09
09
04
73
0B
0D
10
05
7A
7D
07
07
7E
7B
73
11
05
06
0F
76
79
06
7C
73
12
7A
09
07
12
07
0F
05
11
03
00
0A
08
03
7E
6F
79
09
0B
7F
06
03
6F
70
06
71
15
75
7B
14
7E
74
0E
01
79
78
08
03
77
03
70
05
12
0A
12
71
76
11
0B
0B
72
78
05
10
70
7E
08
71
76
04
7A
10
12
00
73
04
05
77
77
0C
7E
70
77
09
7B
0F
0A
0C
74
7C
77
01
0E
05
0C
71
00
12
7A
07
11
0B
79
0C
76
08
7E
03
0B
7B
7A
0D
78
02
7E
0E
7A
0A
06
0E
0C
74
0D
7C
74
09
07
74
07
0A
07
04
04
6F
7F
7F
7D
71
10
0B
7A
77
78
6F
06
76
03
6F
04
01
7C
07
71
02
04
09
7C
74
0F
74
0A
0D
01
7B
10
71
03
05
6E
73
70
02
00
06
78
7A
0B
7B
71
72
78
10
0B
0F
77
11
0C
79
06
78
74
12
79
7A
13
02
75
72
02
70
77
07
0E
05
03
03
09
03
7A
0B
01
7C
03
70
0B
0A
6F
04
76
01
75
03
76
0C
7A
10
00
09
7F
7E
7F
06
04
11
08
75
7A
7F
08
00
71
7A
03
74
06
0F
7D
05
07
04
7C
04
06
0E
08
00
6F
71
7D
0C
74
10
01
79
02
7B
00
74
01
0D
0A
06
77
01
7F
01
79
12
05
06
0E
04
0F
08
77
74
0D
7D
00
72
01
06
71
03
0D
0D
71
76
11
75
09
04
0E
0E
70
7D
01
02
0A
7A
71
72
7B
0E
7F
7D
7D
02
7E
12
02
03
04
74
08
0B
0C
7A
0B
77
75
7C
77
75
70
01
06
75
08
74
10
0E
7D
72
7C
74
7C
70
79
76
06
0D
7E
0A
75
0B
01
06
0A
10
05
07
77
05
75
73
11
10
77
7C
11
0E
78
70
0E
10
73
7E
77
12
0F
07
0F
02
76
11
77
74
05
70
6F
6D
78
70
6F
0A
0A
10
06
04
6F
12
72
75
70
11
07
76
72
75
6F
7D
03
7F
0C
08
0F
04
0C
7B
7A
0A
7B
71
7D
79
76
01
7C
79
74
74
6E
11
00
74
0C
7A
0E
05
0A
05
0A
77
79
09
73
7C
0C
74
05
7E
0C
73
74
7E
7A
0F
7B
06
74
0A
01
03
0B
7D
12
00
75
05
7B
75
12
00
0C
77
0C
0F
71
74
11
7C
0A
06
00
73
00
00
75
11
75
76
11
03
10
0B
6F
03
0C
7D
71
7F
04
00
7E
78
0A
77
08
0F
70
09
71
08
6F
03
0F
08
0F
05
6E
74
0A
74
02
77
78
11
72
06
11
76
79
72
0C
00
74
74
73
07
7F
79
0E
6F
7C
7F
7C
12
79
10
72
7E
7E
11
75
02
06
74
75
0F
03
71
7B
76
06
00
74
7D
0C
0D
77
09
7E
03
7B
0A
01
7E
73
0D
0C
03
0B
04
08
09
7F
0D
0D
03
06
7A
75
06
6F
03
74
02
0F
0B
6E
6E
10
7D
72
0A
04
06
0C
79
7A
0F
06
73
78
74
7E
7C
08
7F
04
7E
7E
76
7D
00
7B
05
72
6E
11
74
79
71
73
74
08
73
78
77
11
79
78
71
05
10
06
75
05
77
0A
08
08
0A
0F
06
71
0C
71
07
7A
09
7C
76
78
08
78
0B
79
76
7B
7A
02
7D
0B
02
03
04
7A
75
0B
0C
12
71
07
7D
75
74
0E
0B
72
10
72
77
10
7C
78
7A
02
79
7E
00
08
7B
74
12
0D
06
02
73
06
7F
7F
74
04
14
08
12
10
06
07
06
7A
74
0E
01
7C
7A
0F
0C
10
7D
0F
12
7E
76
79
0C
05
6E
7F
0B
75
07
0D
76
73
08
7B
06
77
6E
7C
7F
7B
79
76
05
76
71
73
73
0B
73
74
76
7E
73
7A
09
7A
08
03
01
72
12
71
7D
74
0C
71
74
7C
7B
7E
73
05
7C
0E
10
07
0C
03
7E
73
7B
7A
7C
13
04
78
07
0C
7D
06
09
12
7C
0C
13
75
79
08
77
77
05
10
05
0D
0F
6E
7F
11
74
01
74
74
00
79
05
0F
79
76
72
0C
0B
7F
7C
05
70
72
7A
71
01
7F
0B
01
0E
72
0E
76
07
05
72
70
0E
6F
73
7A
77
74
76
78
0F
08
0F
11
73
09
75
78
7A
73
13
04
0C
01
0E
78
11
0F
07
00
10
79
7B
7D
7A
01
7D
12
0F
0D
11
7C
03
08
05
0A
09
0D
7B
74
79
04
08
70
15
11
0B
72
0A
03
09
13
03
0E
7E
78
02
01
7C
71
11
7D
7E
0D
07
11
0A
7A
78
0F
02
09
7D
6F
0B
7E
0B
7F
73
02
77
7C
73
0D
05
74
08
79
07
08
7B
77
76
74
00
71
05
75
0C
01
7D
7B
7B
0B
7D
02
79
0B
0A
04
04
00
01
6F
03
7E
03
73
09
7A
07
71
0F
6E
76
7B
0E
0D
0B
6E
76
6F
7C
75
70
12
0D
7C
75
0B
72
7F
07
75
76
7F
70
73
79
03
71
0A
01
73
02
0F
0E
09
70
0F
7A
7C
70
0C
72
0B
03
0D
0F
7D
02
76
75
02
71
77
0A
71
6F
04
7A
0B
75
7A
05
0D
7D
74
06
71
73
0C
10
7F
0D
0F
09
7F
09
7C
0C
0F
7B
0A
6F
75
7A
0D
76
7A
01
74
72
7E
0C
7A
05
70
75
10
0B
7E
6F
02
12
74
03
76
78
77
75
7D
0E
7B
7E
08
09
7F
79
0A
11
08
74
70
11
12
0F
04
7A
0D
72
08
76
71
10
05
76
7A
76
6E
71
7E
00
79
0C
07
10
01
0F
