62
07
67
77
61
34
1B
0F
17
12
67
10
10
6F
11
5F
1B
0D
08
6D
0E
13
78
00
01
79
7B
6C
75
0C
0E
62
1C
6D
10
72
03
7C
0B
68
1D
67
16
6D
02
6A
08
6F
6D
6F
08
69
18
62
14
7B
19
12
7A
7F
6B
74
67
1D
00
14
07
71
74
30
72
6D
62
1A
69
1B
17
6E
15
0B
1A
0F
72
7B
18
21
1C
7C
20
1F
16
7B
17
10
15
0A
25
0B
6C
64
03
33
01
1B
0C
17
03
7A
6B
66
69
75
11
06
78
21
6F
4E
63
61
07
21
11
0A
75
6D
0C
1D
04
65
78
70
71
5D
75
1D
7B
6F
67
68
77
63
1D
7B
6F
1B
68
7F
7D
04
7A
00
18
70
11
6A
1A
1B
06
75
05
0A
7F
01
04
2D
01
66
04
63
1B
0F
06
13
15
0E
16
1A
0D
10
18
5F
06
1C
6E
26
74
0D
6A
6B
77
22
7C
14
61
67
1A
5E
02
69
07
7F
1A
70
6B
65
09
77
0B
6D
0C
78
25
7B
6A
20
12
05
78
19
6C
09
7A
22
20
05
79
00
7E
17
15
01
13
6F
12
66
12
6F
70
08
10
09
1A
18
10
65
18
11
1B
0D
16
08
76
67
11
6C
23
70
6A
70
36
13
18
65
6E
1D
68
00
13
7A
77
09
1C
1A
15
7B
05
73
7B
04
67
62
71
6D
07
74
7D
67
6F
14
16
07
7B
3D
6B
00
64
07
04
6E
03
78
00
15
10
6E
0D
66
1A
19
70
0F
0B
00
6A
71
10
68
6F
15
6F
7E
1B
00
6B
1E
0C
08
02
7D
7D
19
6A
63
72
63
63
67
0E
06
7B
0C
62
71
1C
05
07
79
1D
6E
70
07
0D
11
76
18
6C
36
0F
1C
12
03
0E
6D
6E
02
74
1B
01
67
6D
19
01
70
7E
69
6D
12
71
0C
79
6F
17
72
09
1B
1D
65
02
2B
71
0A
7E
1E
04
01
65
03
78
11
72
7A
6E
73
1E
7D
76
7E
75
0E
1E
6E
1C
25
1A
70
6D
6D
04
6D
6D
6D
13
6B
05
00
05
74
19
74
1C
72
1B
15
70
04
0C
12
68
78
0F
16
1A
7A
71
7A
12
03
63
73
6C
1E
1E
78
03
6C
12
74
00
1C
0F
0D
1C
19
17
6B
06
01
7E
66
15
71
0D
12
17
65
14
0E
6B
0E
69
19
16
10
04
0E
65
6B
63
16
6B
19
17
0E
08
08
0D
68
64
65
79
0F
0F
20
6F
1E
62
79
74
64
73
1E

