5C
18
13
67
73
1A
19
1A
0C
10
64
10
07
6A
7D
5F
73
71
70
1A
12
62
11
13
01
07
08
14
0A
01
0B
1D
14
6C
6B
0F
6F
6F
01
09
15
72
0C
0E
18
7F
03
6D
12
68
17
7B
02
17
7D
78
77
72
04
66
71
77
07
0E
00
0A
72
69
17
03
67
18
63
66
13
1A
72
73
78
6E
1B
7C
76
02
7E
5E
66
7B
76
14
1B
74
7E
0D
7D
07
02
7B
70
01
0F
10
18
05
17
26
0E
00
6A
6A
6D
1F
21
1D
7B
76
23
5E
0C
6D
1E
76
0D
63
6A
12
66
79
10
77
03
7F
0C
29
77
18
77
78
02
62
1E
69
13
6A
7A
65
18
7F
1C
70
02
76
13
20
78
6D
70
66
03
78
79
77
10
1C
11
74
03
64
00
76
6D
0C
2C
6E
6F
14
7F
67
75
7B
23
22
0D
20
14
10
02
74
7A
15
74
11
61
65
17
04
75
1A
6C
69
0E
00
19
14
69
0C
19
76
7D
6F
6E
77
00
2D
01
02
13
0C
02
67
62
7E
78
70
0B
19
76
7F
14
0A
06
6C
10
63
72
7B
65
05
18
72
7D
0A
74
18
78
11
62
0A
6C
1D
7F
6F
0E
7A
79
03
37
76
20
05
10
70
0A
1E
03
1E
02
6E
17
67
0E
7C
05
0A
71
6C
6F
6F
75
1A
01
1C
6D
1D
17
04
7F
6C
75
66
0F
1E
0A
23
65
69
19
16
04
1D
05
1B
67
7D
0D
0B
0E
07
01
71
71
0D
79
17
76
09
14
76
72
22
18
0A
19
7A
7B
2E
17
7A
6C
6D
1D
63
70
16
7B
6E
68
12
77
7C
0F
6C
0E
79
14
65
70
67
14
7E
6F
6F
6E
6E
68
7B
60
31
0A
15
7E
0E
09
03
04
02
76
78
61
7F
7E
19
7D
73
7B
1E
14
61
06
69
05
15
6E
01
0A
78
16
76
69
21
65
21
66
0C
7C
12
0C
6D
14
64
7A
67
68
0F
0E
03
68
7C
1A
14
0B
6F
66
77
62
1F
2C
03
11
03
20
77
7D
17
77
25
06
6A
76
07
03
73
70
02
16
68
72
29
00
1D
7F
67
12
7A
10
09
08
0E
77
06
06
6D
14
68
7C
01
08
1E
73
0C
79
7E
10
1B
6B
7B
0C
09
13
13
1B
6F
67
6C
12
72
62
6D
66
6F
0C
64
69
1D
70
7C
0F
18
0E
02
1B
17
03
68
6E
14
1C
77
6B
6A
71
2E
0D
21
1B
09
66
7C
1A
02
10
06

