0C
09
7E
13
60
2F
1C
1B
67
62
72
77
25
73
62
72
79
73
7F
0F
10
55
18
69
09
65
68
7C
7A
74
04
6F
1C
75
69
03
7D
6A
1A
7D
16
11
00
1C
71
64
0C
13
23
7B
6A
11
6D
19
06
74
0D
0F
07
62
66
79
79
0F
5D
77
02
03
70
79
0C
72
0B
16
06
1C
70
11
6F
14
1C
6D
64
05
1E
6B
05
71
71
17
1D
09
17
77
04
7B
07
67
7E
07
1F
50
05
6B
1C
67
64
77
6A
13
1C
64
07
7C
6B
09
18
1E
7A
05
1B
79
12
1F
72
04
20
6B
13
09
7A
66
17
1E
1A
75
10
72
0F
12
03
73
11
16
1A
00
77
11
0A
11
10
75
0D
76
64
0E
75
67
63
1F
74
7D
07
00
28
7E
65
5D
1F
71
0E
20
17
15
0E
1C
31
03
0B
7B
18
09
6C
2E
6E
1B
73
0A
08
10
70
75
02
6E
16
0D
6C
0A
70
18
60
0F
74
7B
07
15
66
7C
70
6F
14
18
6A
7B
76
78
75
7D
08
6D
72
04
06
79
20
1A
16
7D
00
05
05
6A
67
07
1B
6E
10
7B
10
0F
6A
15
1B
71
02
00
11
6E
69
04
11
6F
02
0F
1C
64
6F
6B
13
1F
0B
22
03
28
03
1D
71
1A
14
77
1F
6F
09
75
7F
16
7E
18
09
02
66
19
62
64
62
62
68
1B
78
0C
12
19
67
27
07
0D
03
62
61
25
74
1B
75
06
68
68
71
6C
72
2B
78
75
12
11
61
78
69
77
14
1B
22
02
74
71
7E
04
74
6B
22
0C
0C
64
71
75
6C
6E
66
0F
03
11
7B
21
10
12
66
75
0F
74
64
62
75
71
0B
7E
17
01
00
2A
7D
19
76
7B
0C
6A
65
69
73
71
0F
04
72
6B
18
16
6D
65
0A
17
12
00
0B
0A
6C
62
1D
03
6F
08
77
18
19
08
75
7A
01
06
6F
64
70
0E
72
63
7E
6E
17
72
15
6F
0C
6A
76
1A
78
66
1B
69
73
11
0A
7A
7A
4F
19
7F
70
0A
10
73
0B
6E
78
03
69
74
0D
6D
7C
0B
63
07
78
0F
7B
08
6C
63
1F
05
79
00
6A
0F
0D
7D
17
72
69
77
67
7A
03
04
77
19
0A
79
7B
7E
70
00
6A
09
6C
7D
68
16
79
7D
18
6A
0C
7C
66
78
16
07
77
0B
0F
03
1A
6B
74
6B
19
12
2E
6A
6F
04
0D
07
76
6A
03
28
19
6E
10
09
05
06

