6E
1B
6F
02
0D
77
79
56
75
18
63
0C
20
22
02
62
6B
70
6B
7F
6E
6C
0E
16
19
7D
6F
19
6E
7C
70
02
1C
67
75
6B
69
7E
6F
78
01
1C
67
18
14
6A
0B
70
7D
70
0E
7A
75
03
62
05
13
1E
66
0D
0C
69
10
78
72
01
68
6D
0B
58
02
14
12
0A
65
67
78
03
13
15
2E
12
0D
7A
29
57
04
11
13
22
0F
06
01
79
1D
03
07
12
14
7E
03
6A
77
0B
05
21
71
66
68
7B
7A
68
04
7A
14
68
7D
6C
01
71
0A
14
03
67
02
03
6D
7D
66
10
0F
0C
17
1C
03
71
00
6D
62
10
66
6A
73
1B
75
7D
66
03
0E
74
79
1F
0A
1D
78
6E
79
04
09
06
0D
63
77
75
1E
4D
02
5B
79
01
15
14
73
1B
0D
6C
05
71
7D
0D
61
1A
02
28
6D
11
04
79
0F
68
10
6B
0A
62
76
19
0C
32
7C
0D
7E
69
18
76
14
6B
0E
0B
70
06
1C
64
64
00
0F
09
18
69
1E
66
14
7F
01
05
65
7A
7F
0D
1D
0D
75
7A
19
6C
74
0E
22
65
6E
11
74
14
0E
74
0F
08
10
11
0C
12
7B
6E
7B
13
63
0C
74
7C
08
7A
0C
03
11
1E
11
76
77
04
60
1A
0A
76
07
1D
17
78
7B
04
19
66
16
6F
13
78
63
6E
62
04
07
6E
7A
15
14
77
09
20
7B
79
09
01
05
0B
79
72
75
77
09
73
0C
01
1D
22
05
69
71
0A
79
02
1C
7B
6D
00
6E
15
05
11
6F
16
69
1D
04
0C
0C
1A
7B
6B
01
6E
0B
07
16
13
6C
04
0E
65
7F
7F
7F
7D
14
73
0E
7D
74
64
63
14
1E
25
7A
64
72
0E
67
16
18
6E
7E
02
00
0B
0A
1B
7D
67
18
6A
7F
72
7F
11
12
6E
0D
00
64
79
20
70
63
7B
00
7B
66
1B
15
7B
7E
0A
01
6D
0E
12
69
1A
78
75
6C
02
05
6C
72
7D
10
70
22
12
7B
06
29
03
6D
7A
69
14
70
66
1B
16
1C
0B
75
6E
0B
7B
69
03
15
7B
75
1B
78
65
72
61
05
04
1E
64
65
75
7C
78
6A
12
75
12
66
62
05
08
0B
11
00
6A
12
0A
06
03
77
6B
1D
6B
65
71
64
70
76
04
11
7C
68
04
13
6A
04
65
0B
79
74
05
04
0C
06
10
12
07
14
1A
03
26
02
16
78
0B
1C
61
06
64
75
65

