63
7E
72
63
6A
06
7E
13
18
13
76
6A
0F
7E
1E
68
61
1D
09
0F
7D
21
0A
7D
09
6B
1E
1C
20
74
6E
03
0F
67
0E
76
11
71
77
70
0C
7F
0C
01
74
14
6A
0D
7A
0E
1A
09
06
7A
7B
0B
0D
10
6A
05
0D
7C
11
6F
62
07
7B
15
0F
33
70
6D
7A
04
0E
16
7B
07
7D
60
76
76
7A
6E
65
27
6F
0B
6F
17
19
6E
6F
64
6E
7B
09
71
71
21
17
1D
67
70
6C
07
6D
08
74
73
0B
66
08
11
6D
6F
03
1E
6D
08
09
65
75
6F
7F
7C
7C
18
0B
17
77
07
7E
6D
6F
6D
63
04
15
13
02
1C
73
00
67
7C
6F
0E
68
7E
1B
16
09
6C
6A
64
12
00
78
00
25
1B
13
61
14
10
09
6C
71
17
05
70
67
09
63
15
79
6C
09
19
1C
33
05
0B
1A
64
17
75
29
1F
79
11
21
64
65
10
7B
09
16
20
06
70
7B
76
03
66
79
66
03
01
6D
08
79
60
6B
5D
15
17
0A
0D
28
04
0C
16
07
09
17
03
15
6D
74
12
09
04
77
10
72
70
09
20
17
0F
69
63
69
6B
12
7B
03
63
13
68
6E
02
14
1B
08
6B
6B
7B
2C
6D
77
68
18
7E
21
01
7C
23
6F
06
62
7E
75
1A
0F
6D
68
77
73
0B
1D
74
08
79
0B
70
66
7E
13
1B
77
79
75
1C
0A
6A
00
1D
7D
7C
1C
0B
1D
6B
7D
19
20
04
03
67
02
09
04
04
03
0A
6F
0B
30
21
1B
62
7E
58
66
66
77
28
77
76
74
6E
63
6C
73
66
02
7A
7C
7B
0A
6B
66
10
05
78
12
0F
6E
03
2A
75
76
00
27
62
1E
76
06
6A
16
7B
64
1E
19
1F
1E
67
12
6C
7C
55
12
6C
70
1F
6F
12
67
79
0D
6E
16
79
0C
10
0B
6C
78
61
03
6B
18
1B
23
72
7D
75
09
65
0B
1C
23
0B
77
1E
0A
0C
1C
74
75
03
79
18
72
78
64
68
70
29
70
12
77
65
62
20
7C
68
72
07
67
7A
05
7F
17
57
1C
00
78
0B
02
69
6F
00
1B
13
16
1D
05
08
77
7F
66
01
1D
0C
73
17
69
01
7A
0D
1A
76
16
19
77
64
0D
07
07
72
62
06
67
1D
65
7F
02
6D
65
68
6D
75
68
72
74
12
63
62
13
77
69
6E
09
06
01
08
77
26
79
6F
7C
09
16
6C
1F
67
1E
1A

