11
03
77
79
7B
28
04
0E
70
05
74
09
0D
7B
06
13
13
11
7E
6D
09
15
7B
06
00
15
65
6E
7A
00
70
19
0D
64
16
18
78
22
7B
06
1C
6C
6F
0B
7F
69
64
74
72
03
77
7B
1C
76
16
1B
0B
64
0C
0E
08
17
01
76
0F
74
11
70
5D
2D
68
69
65
06
72
1C
6C
7F
15
5F
1A
69
74
6F
67
02
08
02
19
0A
06
79
18
01
0C
6F
22
05
08
0A
1A
79
0F
69
10
0A
1E
17
67
0A
67
77
72
03
71
1D
03
24
6D
78
15
1D
73
7B
72
6C
04
63
70
14
6D
7F
7D
0A
1C
6B
02
7E
76
7B
18
67
65
6F
15
7A
12
0F
02
0A
02
03
7F
16
04
67
63
79
02
67
72
17
79
7B
7C
1B
63
13
69
0D
12
0F
64
0A
15
12
7B
75
6A
1C
30
00
69
06
10
07
66
0C
1E
1E
6A
69
1C
12
14
6E
6A
31
00
03
06
0F
7D
79
74
78
04
68
16
07
17
6D
0E
58
16
14
75
04
74
66
17
18
1E
0F
1C
71
7D
22
79
7F
17
12
14
7E
76
6F
0A
1E
1F
1E
01
17
64
68
7C
10
14
1F
0A
03
7D
71
7B
7E
7C
7B
6F
63
73
29
0E
7A
09
19
13
6C
0E
0C
05
6C
7F
02
13
04
06
16
0D
11
76
6F
74
67
08
7C
08
71
12
1A
12
0D
13
7A
6D
18
69
21
62
0D
1C
71
75
6C
7F
7C
04
7B
09
7C
20
49
7E
1B
1D
76
00
66
7D
14
1C
25
1F
74
71
66
16
45
7F
0E
20
71
69
10
71
6C
04
01
0E
68
01
75
6E
61
73
0D
1D
65
01
0F
02
6F
70
09
2B
02
77
7F
17
0B
13
7D
18
2A
7F
6C
7C
65
15
6C
19
7A
1B
1D
1C
1E
0C
1B
1A
02
71
13
05
6A
19
74
72
00
72
7D
1F
65
66
66
0C
76
70
78
69
6A
0E
17
6E
1C
0C
71
77
74
11
6F
12
7F
77
6A
78
6E
75
69
5F
6C
6E
65
10
2B
0B
16
68
13
00
16
1E
7D
03
7F
1C
67
0F
15
01
63
1E
6E
66
71
66
7C
77
01
09
01
77
14
6C
1D
75
68
65
18
1D
11
63
10
78
6F
71
0B
13
0A
62
64
00
65
06
0F
68
06
70
17
7C
7F
67
75
08
0C
67
66
19
73
6B
6C
65
69
79
1A
62
6D
0D
16
63
73
0F
66
01
09
6E
76
6C
6D
6C
1E
05
16
6D
7C

